{
  "</s>": 0,
  "<unk>": 1,
  ".": 2,
  ",": 3,
  "\u2581the": 4,
  "\u2581to": 5,
  "\u2581of": 6,
  "'": 7,
  "?": 8,
  "s": 9,
  "\u2581w": 10,
  "\u2581-": 11,
  "\u2581I": 12,
  "\u2581and": 13,
  "\u2581a": 14,
  "\u2581in": 15,
  "\u2581i": 16,
  "\u2581you": 17,
  "\u2581z": 18,
  "\u2581": 19,
  "\u2581do": 20,
  "\u2581na": 21,
  "\u2581si\u0119": 22,
  "\u2581nie": 23,
  "a": 24,
  "\u2581is": 25,
  "!": 26,
  "\u2581for": 27,
  "\u2581(": 28,
  "\u2581that": 29,
  ":": 30,
  "t": 31,
  "m": 32,
  "-": 33,
  "\u2581on": 34,
  "...": 35,
  "\u2581it": 36,
  ")": 37,
  "\u2581be": 38,
  "y": 39,
  "\u2581\u017ce": 40,
  "\u2581jest": 41,
  "\u2581with": 42,
  "\u2581o": 43,
  "\u2581The": 44,
  "e": 45,
  "\u2581by": 46,
  "\u2581this": 47,
  "\u2581Nie": 48,
  "\u2581not": 49,
  "\u2581are": 50,
  "\u2581You": 51,
  "\u2581was": 52,
  "\u2581have": 53,
  "\u2581za": 54,
  "\u2581we": 55,
  "\u2581me": 56,
  "u": 57,
  "\u2581or": 58,
  "\u2581as": 59,
  "ch": 60,
  "j": 61,
  "\u2581W": 62,
  "\u2581your": 63,
  "\u2581\"": 64,
  "re": 65,
  "\u2581A": 66,
  "\u2581To": 67,
  "\u2581from": 68,
  "\u2581po": 69,
  "\u2581can": 70,
  "em": 71,
  "\u2581od": 72,
  "i": 73,
  "\u2581at": 74,
  "\u2581It": 75,
  "\u2581my": 76,
  "\u2581co": 77,
  ";": 78,
  "\u2581go": 79,
  "\u2581dla": 80,
  "\u2581all": 81,
  "d": 82,
  "o": 83,
  "\u2581lub": 84,
  "\u2581jak": 85,
  "\u2581No": 86,
  "\u2581know": 87,
  "\u2581an": 88,
  "\u2581he": 89,
  "\u2581przez": 90,
  "/": 91,
  "\u25811": 92,
  "\u2581will": 93,
  "\u0105": 94,
  "go": 95,
  "\u2581out": 96,
  "\u2581what": 97,
  "\u2581We": 98,
  "\u2581one": 99,
  "\u2581tym": 100,
  "ing": 101,
  "\u2581up": 102,
  "\u2581oraz": 103,
  "\u2581What": 104,
  "\u00f3w": 105,
  "\u2581about": 106,
  "\u2581don": 107,
  "\u2581just": 108,
  "mi": 109,
  "\u25812": 110,
  "\u2581which": 111,
  "\u2581like": 112,
  "\u2581And": 113,
  "ll": 114,
  "\u0107": 115,
  "\u2581mnie": 116,
  "\u2581they": 117,
  "\u2581mi": 118,
  "\u2581but": 119,
  "\u2581s\u0105": 120,
  "\u0119": 121,
  "\u2581here": 122,
  "\u2581tego": 123,
  "nie": 124,
  "\u2581ma": 125,
  "\u2581there": 126,
  "\u2581/": 127,
  "\u2581has": 128,
  "sz": 129,
  "\u2581r": 130,
  "\u2581so": 131,
  "my": 132,
  "\u2581tak": 133,
  "\u2581He": 134,
  "ed": 135,
  "\u2581no": 136,
  "na": 137,
  "\u2581get": 138,
  "\u2581shall": 139,
  "\u25813": 140,
  "\u2581Co": 141,
  "\u2581him": 142,
  "\u2581right": 143,
  "\u2581_": 144,
  "_": 145,
  "\u2581In": 146,
  "\u2581ale": 147,
  "\u2581u": 148,
  "\u2581if": 149,
  "\u2581This": 150,
  "ve": 151,
  "\u2581Tak": 152,
  "\u2581been": 153,
  "\u2581S": 154,
  "\u2581O": 155,
  "\u2581by\u0107": 156,
  "\u2581her": 157,
  "\u2581his": 158,
  "\u2581\u2013": 159,
  "li": 160,
  "\u2581Article": 161,
  "\u2581should": 162,
  "\u2581time": 163,
  "\u2581ze": 164,
  "\u2581were": 165,
  "cie": 166,
  "\u2581more": 167,
  "ie": 168,
  "\u2581wy": 169,
  "BAR": 170,
  "\u2581mo\u017ce": 171,
  "\u2581That": 172,
  "\u2581their": 173,
  "\u2581tylko": 174,
  "\u2581other": 175,
  ").": 176,
  "\u2581Do": 177,
  "\"": 178,
  "\u2581want": 179,
  "\u2581our": 180,
  "ne": 181,
  "\u2581przy": 182,
  "\u2581them": 183,
  "\u2581us": 184,
  "\u2581would": 185,
  "\u2581kt\u00f3re": 186,
  "\u2581who": 187,
  "\u2581European": 188,
  "w": 189,
  "\u2581Z": 190,
  "\u2581pod": 191,
  "\u2581got": 192,
  "ka": 193,
  "\u2581ci": 194,
  "\u2581Regulation": 195,
  "er": 196,
  "c": 197,
  "\u0142": 198,
  "\u2581Po": 199,
  "ami": 200,
  "\u2581ich": 201,
  "\u2581when": 202,
  "\u2581think": 203,
  "z": 204,
  "\u2581So": 205,
  "\u2581Na": 206,
  "\u2581Oh": 207,
  "\u25815": 208,
  "\u2581But": 209,
  "\u2581art": 210,
  "ki": 211,
  "\u2581Commission": 212,
  "\u2019": 213,
  "\u2581see": 214,
  "),": 215,
  "\u2581jego": 216,
  "S": 217,
  "\u2581into": 218,
  "\u2581had": 219,
  "\u2581she": 220,
  "nia": 221,
  "\u2581Yeah": 222,
  "\u2581only": 223,
  "ach": 224,
  "\u2581L": 225,
  "\u2581any": 226,
  "\u2581also": 227,
  "\u2581b\u0119dzie": 228,
  "\u2581its": 229,
  "\u2581\u201e": 230,
  "\u2581tu": 231,
  "\u2581now": 232,
  "\u2581need": 233,
  "\u25814": 234,
  "\u2581may": 235,
  "in": 236,
  "ny": 237,
  "\u2581czy": 238,
  "\u2581Member": 239,
  "\u2581Ale": 240,
  "\u2581back": 241,
  "\u2581some": 242,
  "\u2581ju\u017c": 243,
  "\u2581did": 244,
  "A": 245,
  "\u2581s": 246,
  "\u2581Well": 247,
  "\u2581than": 248,
  "\u2581jej": 249,
  "\u2581take": 250,
  "\u2581ten": 251,
  "\u2581ci\u0119": 252,
  "\u2581going": 253,
  "\u2581If": 254,
  "\u2581good": 255,
  "\u258110": 256,
  "\u2581could": 257,
  "\u2581down": 258,
  "n": 259,
  "\u2581dnia": 260,
  "\u2581people": 261,
  "\u2581gonna": 262,
  "b": 263,
  "\u2581way": 264,
  "\u2581C": 265,
  "\u2581They": 266,
  "\u2581where": 267,
  "\u2581over": 268,
  "C": 269,
  "owe": 270,
  "g": 271,
  "\u25816": 272,
  "\u2581nr": 273,
  "\u2581Za": 274,
  "\u2581these": 275,
  "\u2581make": 276,
  "\u2581aby": 277,
  "k": 278,
  "\u2581how": 279,
  "ly": 280,
  "\u2581new": 281,
  "\u2581B": 282,
  "EC": 283,
  "\u2581Jak": 284,
  "3": 285,
  "\u2581States": 286,
  "\u2581ja": 287,
  "\u0142a": 288,
  "\u2581She": 289,
  "\u2581prze": 290,
  "\u2581ust": 291,
  "\u2581such": 292,
  "I": 293,
  "WE": 294,
  "\u2581God": 295,
  "\u2581first": 296,
  "j\u0105": 297,
  "\u2581jako": 298,
  "no": 299,
  "\u2581U": 300,
  "\u2581co\u015b": 301,
  "\u2581man": 302,
  "\u2581ty": 303,
  "\u2581two": 304,
  "\u2581kt\u00f3ry": 305,
  "\u2581come": 306,
  "]": 307,
  "\u2581'": 308,
  "\u2581use": 309,
  "\u2581How": 310,
  "\u2581\u2014": 311,
  "\u2581work": 312,
  "\u2581then": 313,
  "\u2581those": 314,
  "\u2581sobie": 315,
  "\u2581must": 316,
  "\u2581very": 317,
  "\u2581say": 318,
  "\u2581online": 319,
  "\u2581E": 320,
  "\u2581p": 321,
  "\u2581r\u00f3wnie\u017c": 322,
  "U": 323,
  "\u2581bardzo": 324,
  "\u2581by\u0142": 325,
  "\u2581There": 326,
  "\u2581pan": 327,
  "\u2581[": 328,
  "\u2581te": 329,
  "\u2581Czy": 330,
  "\u2581je\u015bli": 331,
  "\u2581All": 332,
  "\u2581celu": 333,
  "ego": 334,
  "\u2581przed": 335,
  "ej": 336,
  "owych": 337,
  "\u2581nas": 338,
  "\u2581My": 339,
  "\u2581by\u0142o": 340,
  "\u2581tej": 341,
  "ce": 342,
  "\u2581years": 343,
  "\u2581nale\u017cy": 344,
  "\u2581ni\u017c": 345,
  "\u2581information": 346,
  "\u2581bez": 347,
  "\u2581well": 348,
  "\u2581under": 349,
  "ni": 350,
  "\u2581gdy": 351,
  "\u2581roku": 352,
  "\u25817": 353,
  "2": 354,
  "\u2581tych": 355,
  "B": 356,
  "\u2581system": 357,
  "\u2581said": 358,
  "W": 359,
  "\u2581te\u017c": 360,
  "\u258120": 361,
  "\u2581something": 362,
  "r": 363,
  "\u2581tam": 364,
  ".\"": 365,
  "om": 366,
  "\u2581D": 367,
  "\u2581Je\u015bli": 368,
  "owy": 369,
  "\u2581really": 370,
  "\u2581didn": 371,
  "\u2581P": 372,
  "\u2581mog\u0105": 373,
  "\u0142o": 374,
  "\u2581Yes": 375,
  "\u2581Council": 376,
  "\u2581For": 377,
  "\u2581tak\u017ce": 378,
  "\u2581made": 379,
  "l": 380,
  "\u2581after": 381,
  "owi": 382,
  "\u2581tell": 383,
  "\u2581day": 384,
  "\u2581Jest": 385,
  "\u2581mo\u017cna": 386,
  "\u201d": 387,
  "\u2581\u201c": 388,
  "\u2581%": 389,
  "\u2581too": 390,
  "\u258115": 391,
  "\u2581kt\u00f3rych": 392,
  "n\u0105": 393,
  "\u2581zgodnie": 394,
  "\u2581lat": 395,
  "ek": 396,
  "\u2581sprawie": 397,
  "\u2581jestem": 398,
  "\u2581Why": 399,
  "\u2581EU": 400,
  "to": 401,
  "\u2581before": 402,
  "\u25818": 403,
  "owa": 404,
  "\u2581used": 405,
  "\u2581life": 406,
  "\u2581even": 407,
  "al": 408,
  "\u2581e": 409,
  "\u2581j\u0105": 410,
  "\u2581because": 411,
  "\u2581rozporz\u0105dzenia": 412,
  "\u258112": 413,
  "\u2581off": 414,
  "\u2581Ja": 415,
  "ych": 416,
  "\u2581On": 417,
  "\u2581Komisji": 418,
  "\u2581m": 419,
  "\u2581mean": 420,
  "\u2581help": 421,
  "\u2581jeste\u015b": 422,
  "\u2581wszystko": 423,
  "\u2581de": 424,
  "\u2581przypadku": 425,
  "\u2581between": 426,
  "D": 427,
  "\u2581Okay": 428,
  "\u2581little": 429,
  "\u2581Union": 430,
  "or": 431,
  "\u2581kiedy": 432,
  "\u2581never": 433,
  "\u2581G": 434,
  "\u2581je": 435,
  "es": 436,
  "\u2581am": 437,
  "\u2581jeszcze": 438,
  "\u2581K": 439,
  "\u2581let": 440,
  "\u2581same": 441,
  "\u2581wi\u0119cej": 442,
  "\u2581much": 443,
  "\u2581file": 444,
  "\u2581wszystkich": 445,
  "\u2581roz": 446,
  "\u2581mam": 447,
  "\u258130": 448,
  "\u2581find": 449,
  "\u2581mu": 450,
  "\u2581re": 451,
  "\".": 452,
  "\u2581through": 453,
  "\u2581teraz": 454,
  "\u2581...": 455,
  "\u2581Don": 456,
  "\u2581Come": 457,
  "\u2581ciebie": 458,
  "\u258118": 459,
  "\u2581look": 460,
  "\u2581wiem": 461,
  "\u2581spos\u00f3b": 462,
  "\u2581Wy": 463,
  "\u2581free": 464,
  "\u2581M": 465,
  "\u2581Let": 466,
  "\u2581place": 467,
  "\u2581Od": 468,
  "nych": 469,
  "\u2581love": 470,
  "\u2581\u201d": 471,
  "\u2581\u017ceby": 472,
  "\u2581most": 473,
  "am": 474,
  "\u2581Hey": 475,
  "th": 476,
  "\u2581does": 477,
  "\u2581Mr": 478,
  "\u2581following": 479,
  "\u2581still": 480,
  "\u25819": 481,
  "1": 482,
  "\u2581bo": 483,
  "owego": 484,
  "\u2581products": 485,
  "\u2581dobrze": 486,
  "\u2581thing": 487,
  "ta": 488,
  "\u2581innych": 489,
  "\u2581set": 490,
  "\u258119": 491,
  "\u2581nam": 492,
  "\u2581T": 493,
  "\u2581doing": 494,
  "\u2581wi\u0119c": 495,
  "\u2581&": 496,
  "\u2581Mo\u017ce": 497,
  "\u2581mog\u0119": 498,
  "\u2581last": 499,
  "\u2581pracy": 500,
  "ci": 501,
  "\u2581tutaj": 502,
  "x": 503,
  "\u2581nad": 504,
  "\u2581why": 505,
  "\u2581give": 506,
  "le": 507,
  "\u2581year": 508,
  "ia": 509,
  "p": 510,
  "\u2581Artyku\u0142": 511,
  "\u2581long": 512,
  "\u2581case": 513,
  "\u2581Rady": 514,
  "\u2581Where": 515,
  "\u2581world": 516,
  "\u2581Community": 517,
  "ty": 518,
  "ca": 519,
  "\u2581market": 520,
  "\u2581ta": 521,
  "\u2581Wi\u0119c": 522,
  "\u2581being": 523,
  "\u2581part": 524,
  "by": 525,
  "owej": 526,
  "\u2581gdzie": 527,
  "\u2581Jestem": 528,
  "\u0142em": 529,
  "\u2581Bo": 530,
  "\u2581Mam": 531,
  "on": 532,
  "en": 533,
  "\u2581mi\u0119dzy": 534,
  "\u2581pani": 535,
  "\u0142am": 536,
  "\u25810": 537,
  "\u2581kt\u00f3ra": 538,
  "4": 539,
  "\u2581name": 540,
  "E": 541,
  "\u2581\u017cycie": 542,
  "za": 543,
  "O": 544,
  "ze": 545,
  "\u2581Now": 546,
  "\u2581again": 547,
  "\u2581Komisja": 548,
  "\u2581UE": 549,
  "\u2581Your": 550,
  "\u2581data": 551,
  "\u2581many": 552,
  "\u2581State": 553,
  "\u2581F": 554,
  "ku": 555,
  "\u2581Directive": 556,
  "\u2581czas": 557,
  "P": 558,
  "\u2581without": 559,
  "\u2581own": 560,
  "\u2581order": 561,
  "\u2581masz": 562,
  "cy": 563,
  "\u2581Just": 564,
  "G": 565,
  "\u0142y": 566,
  "\u2581nic": 567,
  "\u2581by\u0142a": 568,
  "\u258116": 569,
  "\u258111": 570,
  "\u2581As": 571,
  "\u2581measures": 572,
  "\u2581zakresie": 573,
  "\u2581within": 574,
  "\u2581each": 575,
  "\u2581number": 576,
  "--": 577,
  "T": 578,
  "\u2581wszystkie": 579,
  "\u2581every": 580,
  "\u2581Unii": 581,
  "\u2581night": 582,
  "\u2581problem": 583,
  "\u2581better": 584,
  "\u2581sure": 585,
  "\u2581Prosz\u0119": 586,
  "\u2581home": 587,
  "\u2581okay": 588,
  "\u2581nawet": 589,
  "\u258114": 590,
  "\u258117": 591,
  "mu": 592,
  "\u2581things": 593,
  "\u2581When": 594,
  "\u2581domu": 595,
  "\u2581Go": 596,
  "\u2581\u2018": 597,
  "\u258125": 598,
  "M": 599,
  "\u2581nim": 600,
  "\u2581accordance": 601,
  "N": 602,
  "enia": 603,
  "\u2581call": 604,
  "do": 605,
  "\u2581three": 606,
  "owa\u0107": 607,
  "\u2581ludzi": 608,
  "\u2581put": 609,
  "K": 610,
  "\u2581pa\u0144stwa": 611,
  "\u2581away": 612,
  "\u2581particular": 613,
  "\u2581around": 614,
  "\u2581sorry": 615,
  "\u2581Annex": 616,
  "\u2581games": 617,
  "\u2581great": 618,
  "\u0142e\u015b": 619,
  "\u2581anything": 620,
  "\u2581zrobi\u0107": 621,
  "\u258113": 622,
  "li\u015bmy": 623,
  "(": 624,
  "\u2581maj\u0105": 625,
  "\u2581pomocy": 626,
  "\u2581thought": 627,
  "\u258124": 628,
  "\u2581mamy": 629,
  "\u2581another": 630,
  "\u015b": 631,
  "one": 632,
  "\u2581m\u00f3j": 633,
  "ko": 634,
  "\u2581nich": 635,
  "\u2581Are": 636,
  "f": 637,
  "\u2581Dlaczego": 638,
  "po": 639,
  "\u2581porz\u0105dku": 640,
  "man": 641,
  "\u2581found": 642,
  "\u2581area": 643,
  "\u2581Not": 644,
  "\u2581odniesieniu": 645,
  "\u2581kt\u00f3rym": 646,
  "\u2581informacji": 647,
  "\u2581V": 648,
  "\u2581dotycz\u0105ce": 649,
  "\u2581kt\u00f3rzy": 650,
  "\u2581talk": 651,
  "\u2581point": 652,
  "\u2581times": 653,
  "\u2581Can": 654,
  "\u2581ramach": 655,
  "\u2581!": 656,
  "\u2581services": 657,
  "h": 658,
  "k\u0119": 659,
  "\u2581means": 660,
  "\u2581Jeste\u015b": 661,
  "\",": 662,
  "Z": 663,
  "la": 664,
  "\u2581EUR": 665,
  "\u2581available": 666,
  "\u2581best": 667,
  "\u2581II": 668,
  "\u2581im": 669,
  "\u2581czasu": 670,
  "ow\u0105": 671,
  "\u2581per": 672,
  "\u2581Look": 673,
  "\u2581always": 674,
  "\u2581danych": 675,
  "uje": 676,
  "\u2581Ma": 677,
  "ra": 678,
  "\u2581R": 679,
  "da": 680,
  "\u2581high": 681,
  "enie": 682,
  "\u2581takie": 683,
  "\u2581N": 684,
  "\u2581dzieci": 685,
  "\u2581jednak": 686,
  "\u017c": 687,
  "\u2581provided": 688,
  "\u2581Thank": 689,
  "ry": 690,
  "\u2581both": 691,
  "niu": 692,
  "\u2581chcesz": 693,
  "\u2581temu": 694,
  "\u2581produkt\u00f3w": 695,
  "\u2581play": 696,
  "\u2581told": 697,
  "\u2581musi": 698,
  "de": 699,
  "\u2581countries": 700,
  "ym": 701,
  "\u2581mg": 702,
  "\u2581Europejskiej": 703,
  "\u2581product": 704,
  "\u2581level": 705,
  "zy": 706,
  "\u2581przedsi\u0119biorstw": 707,
  "\u2581national": 708,
  "\u2581lot": 709,
  "te": 710,
  "\u2581Dobrze": 711,
  "\u258121": 712,
  "\u2581albo": 713,
  "\u2581provide": 714,
  "H": 715,
  "\u2581application": 716,
  "nego": 717,
  "\u2581end": 718,
  "\u2581THE": 719,
  "\u2581\u015brodk\u00f3w": 720,
  "\u2581b": 721,
  "\u2581referred": 722,
  "\u2581H": 723,
  "\u2581might": 724,
  "\u2581including": 725,
  "an": 726,
  "\u2581Prze": 727,
  "\u2581money": 728,
  "\u2581car": 729,
  "\u2581during": 730,
  "\u2581mo\u017cesz": 731,
  "\u2581:": 732,
  "\u2581conditions": 733,
  "\u2581Re": 734,
  "\u2581days": 735,
  "\u2581g": 736,
  "\u2581public": 737,
  "\u2581rzecz": 738,
  "\u2581b\u0119d\u0105": 739,
  "\u2581different": 740,
  "\u2581rynku": 741,
  "the": 742,
  "\u2581open": 743,
  "\u2581wiele": 744,
  "\u2581Hotel": 745,
  "ro": 746,
  "\u2581powiedzie\u0107": 747,
  "\u2581important": 748,
  "R": 749,
  "\u2581Przepraszam": 750,
  "\u2581period": 751,
  "F": 752,
  "\u2581bardziej": 753,
  "\u2581course": 754,
  "\u2581old": 755,
  "\u2581os\u00f3b": 756,
  "\u2581Wiem": 757,
  "\u258150": 758,
  "\u2581plan": 759,
  "\u2581ona": 760,
  "ma": 761,
  "dy": 762,
  "\u2581strony": 763,
  "\u2581kind": 764,
  "owanie": 765,
  "\u2581Ta": 766,
  "\u2581keep": 767,
  "\u0144": 768,
  "\u2581Przy": 769,
  "\u2581ever": 770,
  "\u2581believe": 771,
  "\u2581gry": 772,
  "\u2581podczas": 773,
  "\u2581please": 774,
  "\u258122": 775,
  "\u2581Get": 776,
  "\u2581100": 777,
  "\u2581raz": 778,
  "owania": 779,
  "\u2581regard": 780,
  "\u2581Europe": 781,
  "\u2581Good": 782,
  "\u2581support": 783,
  "\u2581prostu": 784,
  "\u2581financial": 785,
  "\u2581Gdzie": 786,
  "wi": 787,
  "\u2581won": 788,
  "V": 789,
  "\u2581family": 790,
  "\u2581already": 791,
  "\u2581razy": 792,
  "owym": 793,
  "\u2581person": 794,
  "\u2581chc\u0119": 795,
  "\u2581while": 796,
  "\u2581zosta\u0107": 797,
  "\u25812006": 798,
  "\u2581done": 799,
  "\u2581feel": 800,
  "\u2581prawda": 801,
  "ona": 802,
  "\u2581against": 803,
  "co": 804,
  "\u2581miejsce": 805,
  "\u2581Who": 806,
  "X": 807,
  "\u2581real": 808,
  "ga": 809,
  "ers": 810,
  "\u258123": 811,
  "\u2581podstawie": 812,
  "\u2581chodzi": 813,
  "\u258131": 814,
  "pl": 815,
  "\u2581necessary": 816,
  "\u2581razem": 817,
  "\u2581guy": 818,
  "\u2581Ty": 819,
  "ska": 820,
  "\u2581Decision": 821,
  "\u2581house": 822,
  "\u2581dzia\u0142ania": 823,
  "\u2581swoje": 824,
  "\u25812005": 825,
  "\u2581temat": 826,
  "\u2581together": 827,
  "\u2581sir": 828,
  "\u2581zawsze": 829,
  "\u2581pa\u0144stw": 830,
  "\u2581informacje": 831,
  "k\u0105": 832,
  "\u2581possible": 833,
  "\u2581related": 834,
  "\u2581business": 835,
  "\u2581cz\u0119\u015bci": 836,
  "\u2581One": 837,
  "\u2581mie\u0107": 838,
  "\u2581big": 839,
  "\u2581rules": 840,
  "gi": 841,
  "\u2581kt\u00f3rej": 842,
  "\u2581Dzi\u0119kuj\u0119": 843,
  "\u2581inne": 844,
  "\u2581left": 845,
  "j\u0105cych": 846,
  "\u2581zosta\u0142": 847,
  "\u2581dni": 848,
  "\u2581Wiesz": 849,
  "\u2581everything": 850,
  "\u2581show": 851,
  "bo": 852,
  "wa": 853,
  "ja": 854,
  "\u2581nothing": 855,
  "us": 856,
  "\u2581Parliament": 857,
  "\u2581today": 858,
  "\u2581\u00bb": 859,
  "\u2581Kiedy": 860,
  "\u2581doesn": 861,
  "\u2581cz\u0142onkowskie": 862,
  "\u2581second": 863,
  "\u2581ani": 864,
  "\u2581water": 865,
  "\u2581room": 866,
  "\u2581account": 867,
  "\u2581New": 868,
  "\u2581*": 869,
  "\u2581stop": 870,
  "\u2581next": 871,
  "\u2581wiesz": 872,
  "\u2581country": 873,
  "\u2581rzeczy": 874,
  "\u2581szczeg\u00f3lno\u015bci": 875,
  "\u2581development": 876,
  "\u2581naprawd\u0119": 877,
  "\u2581program": 878,
  "\u2581czym": 879,
  "\u2581taken": 880,
  "\u2581service": 881,
  "\u2581Nic": 882,
  "\u2581came": 883,
  "\u258127": 884,
  "\u2581Please": 885,
  "\u2581takich": 886,
  "\u2581siebie": 887,
  "\u2581nigdy": 888,
  "\u2581jeden": 889,
  "wy": 890,
  "\u2581Bez": 891,
  "\u2581dotycz\u0105cych": 892,
  "\u2581Ten": 893,
  "\u2581by\u0142y": 894,
  "\u2581children": 895,
  "\u2581since": 896,
  "\u2581aid": 897,
  "\u2581niego": 898,
  "\u25812010": 899,
  "\u2581zwi\u0105zanych": 900,
  "\u2581control": 901,
  "\u2581Then": 902,
  "ic": 903,
  "\u2581dyrektywy": 904,
  "\u2581certain": 905,
  "\u2581Committee": 906,
  "\u2581change": 907,
  "\u2581\u017cycia": 908,
  "\u2581form": 909,
  "\u2581Ci": 910,
  "\u25812004": 911,
  "\u25812012": 912,
  "\u2581guys": 913,
  "\u2581At": 914,
  "up": 915,
  "\u2581ago": 916,
  "\u2581Did": 917,
  "\u2581try": 918,
  "\u2581stanie": 919,
  "\u2581least": 920,
  "\u2581called": 921,
  "\u25812011": 922,
  "\u2581start": 923,
  "\u2581troch\u0119": 924,
  "\u2581whole": 925,
  "\u2581decyzji": 926,
  "\u2581authorities": 927,
  "com": 928,
  "\u2581d": 929,
  "\u2581until": 930,
  "\u2581kto": 931,
  "The": 932,
  "\u2581Masz": 933,
  "\u258128": 934,
  "\u2581wanted": 935,
  "\u2581body": 936,
  "\u2581wrong": 937,
  "\u2581miejsca": 938,
  "\u25812013": 939,
  "\u2581working": 940,
  "\u2581report": 941,
  "\u2581rozporz\u0105dzenie": 942,
  "\u2581third": 943,
  "\u2581us\u0142ug": 944,
  "\u2581care": 945,
  "\u2581c": 946,
  "EU": 947,
  "\u2581Windows": 948,
  "\u2581ensure": 949,
  "\u2581coming": 950,
  "\u2581type": 951,
  "\u2581non": 952,
  "\u2581Dzi\u0119ki": 953,
  "\u2581understand": 954,
  "e\u015b": 955,
  "\u2581company": 956,
  "\u2581list": 957,
  "\u2581warto\u015bci": 958,
  "\u2581leave": 959,
  "nej": 960,
  "\u2581date": 961,
  "nym": 962,
  "\u2581poniewa\u017c": 963,
  "\u2581Dobra": 964,
  "\u2581using": 965,
  "od": 966,
  "\u2581having": 967,
  "\u2581months": 968,
  "\u2581sta\u0142o": 969,
  "\u2581prawa": 970,
  "je": 971,
  "\u2581w\u0142a\u015bnie": 972,
  "\u2581Dr": 973,
  "acji": 974,
  "wo": 975,
  "\u2581dwa": 976,
  "ba": 977,
  "lo": 978,
  "owane": 979,
  "ton": 980,
  "\u0142a\u015b": 981,
  "\u2581mo\u017cemy": 982,
  "\u2581kilka": 983,
  "\u2581happened": 984,
  "it": 985,
  "\u2581t\u0119": 986,
  "\u2581ask": 987,
  "ony": 988,
  "\u2581Je\u017celi": 989,
  "\u2581systemu": 990,
  "\u2581given": 991,
  "J": 992,
  "\u2581someone": 993,
  "\u2581De": 994,
  "sta": 995,
  "\u2581\u266a": 996,
  "\u25812007": 997,
  "\u2581live": 998,
  "\u2581cz\u0142onkowskich": 999,
  "\u258129": 1000,
  "\u25812008": 1001,
  "\u2581kt\u00f3rego": 1002,
  "able": 1003,
  "\u2581moje": 1004,
  "\u2581based": 1005,
  "\u2581stosowania": 1006,
  "cz": 1007,
  "\u2581enough": 1008,
  "\u258126": 1009,
  "\u2581lit": 1010,
  "\u2581hear": 1011,
  "\u2581J": 1012,
  "\u2581mowa": 1013,
  "\u2581sam": 1014,
  "\u2581looking": 1015,
  "\u2581price": 1016,
  "\u2581bad": 1017,
  "\u2581Europejskiego": 1018,
  "\u2581job": 1019,
  "\u2581view": 1020,
  "\u2581mia\u0142": 1021,
  "\u2581taking": 1022,
  "\u2581took": 1023,
  "\u2581human": 1024,
  "\u2581hotel": 1025,
  "iem": 1026,
  "\u2581tob\u0105": 1027,
  "\u2581paragraph": 1028,
  "j\u0105c": 1029,
  "\u2581policy": 1030,
  "\u2581patients": 1031,
  "el": 1032,
  "\u2581law": 1033,
  "\u2581girl": 1034,
  "\u2581ochrony": 1035,
  "\u2581appropriate": 1036,
  "\u2581Poland": 1037,
  "\u2581requirements": 1038,
  "\u2581Jesus": 1039,
  "\u2581La": 1040,
  "\u2581chce": 1041,
  "\u2581Bo\u017ce": 1042,
  "ation": 1043,
  "\u25812009": 1044,
  "UE": 1045,
  "\u2581poprzez": 1046,
  "\u2581common": 1047,
  "\u2581Maybe": 1048,
  "Y": 1049,
  "nik": 1050,
  "\u2581full": 1051,
  "\u2581mn\u0105": 1052,
  "ski": 1053,
  "\u2581#": 1054,
  "pa": 1055,
  "\u2581ludzie": 1056,
  "\u2581basis": 1057,
  "czy": 1058,
  "\u2581trying": 1059,
  "st": 1060,
  "\u2581school": 1061,
  "\u2581few": 1062,
  "\u2581km": 1063,
  "\u2581fine": 1064,
  "ar": 1065,
  "\u2581dalej": 1066,
  "\u2581power": 1067,
  "\u2581b\u0119d\u0119": 1068,
  "\u2581mind": 1069,
  "\u2581Here": 1070,
  "\u2581father": 1071,
  "\u2581else": 1072,
  "\u2581By": 1073,
  "\u2581dead": 1074,
  "o\u015b\u0107": 1075,
  "\u2581interest": 1076,
  "\u2581produktu": 1077,
  "\u2581Tylko": 1078,
  "k\u00f3w": 1079,
  "\u2581Wszystko": 1080,
  "\u2581risk": 1081,
  "\u258140": 1082,
  "\u2581therefore": 1083,
  "\u2581went": 1084,
  "\u2581test": 1085,
  "\u2581prosz\u0119": 1086,
  "\u2581Or": 1087,
  "\u2581czasie": 1088,
  "\u2581dane": 1089,
  "ment": 1090,
  "\u2581production": 1091,
  "is": 1092,
  "\u2581talking": 1093,
  "\u2581stay": 1094,
  "\u2581zosta\u0142y": 1095,
  "\u2581un": 1096,
  "\u2581energy": 1097,
  "\u2581game": 1098,
  "\u2581hand": 1099,
  "\u2581ob": 1100,
  "\u2581\u015brodki": 1101,
  "wie": 1102,
  "\u2581OF": 1103,
  "owo": 1104,
  "\u2581These": 1105,
  "\u2581transport": 1106,
  "\u2581dzia\u0142a\u0144": 1107,
  "\u2581uwzgl\u0119dniaj\u0105c": 1108,
  "EEC": 1109,
  "\u2581m\u00f3wi": 1110,
  "\u2581zwi\u0105zku": 1111,
  "\u2581yet": 1112,
  "\u2581powiedzia\u0142": 1113,
  "\u2581pliku": 1114,
  "\u2581getting": 1115,
  "\u2581able": 1116,
  "\u015bci": 1117,
  "\u2581provisions": 1118,
  "\u2581economic": 1119,
  "\u2581kto\u015b": 1120,
  "\u2581Play": 1121,
  "\u2581Uh": 1122,
  "%": 1123,
  "\u2581bezpiecze\u0144stwa": 1124,
  "L": 1125,
  "\u2581Pa\u0144stwa": 1126,
  "\u2581social": 1127,
  "EWG": 1128,
  "\u2581oznacza": 1129,
  "\u2581meet": 1130,
  "\u2581specific": 1131,
  "\u2581czego": 1132,
  "si": 1133,
  "\u2581uh": 1134,
  "\u2581concerned": 1135,
  "il": 1136,
  "\u2581head": 1137,
  "\u2581seen": 1138,
  "\u2581men": 1139,
  "\u2581kill": 1140,
  "\u2581Because": 1141,
  "ter": 1142,
  "\u2581quality": 1143,
  "\u2581An": 1144,
  "at": 1145,
  "\u2581force": 1146,
  "\u2581access": 1147,
  "\u2581mm": 1148,
  "\u2581wielu": 1149,
  "\u2581protection": 1150,
  "\u2581pana": 1151,
  "\u2581See": 1152,
  "\u2581saw": 1153,
  "\u2581friend": 1154,
  "\u2581blood": 1155,
  "ur": 1156,
  "\u2581heart": 1157,
  "\u2581question": 1158,
  "\u2581pacjent\u00f3w": 1159,
  "\u2013": 1160,
  "\u2581taki": 1161,
  "\u2581Ju\u017c": 1162,
  "\u2581less": 1163,
  "\u2581food": 1164,
  "\u2581idea": 1165,
  "\u2581Te": 1166,
  "\u2581run": 1167,
  "\u2581matter": 1168,
  "\u2581zosta\u0142a": 1169,
  "\u2581May": 1170,
  "\u2581dzi\u0119ki": 1171,
  "\u2581son": 1172,
  "\u2581powinny": 1173,
  "\u2581needs": 1174,
  "\u2581Pan": 1175,
  "\u2581Chc\u0119": 1176,
  "bi": 1177,
  "\u25812015": 1178,
  "\u2581je\u017celi": 1179,
  "\u2581value": 1180,
  "\u2581niej": 1181,
  "\u2581Pod": 1182,
  "\u2581respect": 1183,
  "\u2581jeste\u015bmy": 1184,
  "\u2581pre": 1185,
  "\u2581With": 1186,
  "\u2581yourself": 1187,
  "\u25812014": 1188,
  "\u2581niniejszego": 1189,
  "\u2581dzie\u0144": 1190,
  "\u2581city": 1191,
  "\u2581zmiany": 1192,
  "\u2581Musz\u0119": 1193,
  "cza": 1194,
  "\u2581\u201d.": 1195,
  "\u2581X": 1196,
  "\u2581Our": 1197,
  "\u2581side": 1198,
  "\u2581apply": 1199,
  "\u2581check": 1200,
  "\u2581stronie": 1201,
  "\u2581Ha": 1202,
  "\u2581samo": 1203,
  "\u2581Treaty": 1204,
  "\u2581mother": 1205,
  "\u2581Polish": 1206,
  "\u2581TV": 1207,
  "\u2581Having": 1208,
  "\u2581once": 1209,
  "\u2581decision": 1210,
  "\u2581przyk\u0142ad": 1211,
  "\u2581wszystkim": 1212,
  "\u2581activities": 1213,
  "\u2581remember": 1214,
  "\u2581security": 1215,
  "\u2581million": 1216,
  "\u2581praw": 1217,
  "\u2581Of": 1218,
  "ii": 1219,
  "\u2581cz\u0119\u015b\u0107": 1220,
  "\u2581programu": 1221,
  "\u2581actually": 1222,
  "\u2581Dla": 1223,
  "\u2581far": 1224,
  "tu": 1225,
  "\u2581treatment": 1226,
  "\u2581trzy": 1227,
  "\u2581fact": 1228,
  "\u2581group": 1229,
  "\u2581small": 1230,
  "\u2581December": 1231,
  "\u2581air": 1232,
  "\u2581ni\u0105": 1233,
  "\u2581swoj\u0105": 1234,
  "\u2581euro": 1235,
  "mo": 1236,
  "\u2581cel\u00f3w": 1237,
  "\u2581subject": 1238,
  "\u2581further": 1239,
  "\u2581Home": 1240,
  "\u2581moim": 1241,
  "\u2581pomoc": 1242,
  "\u2581Pro": 1243,
  "\u2581However": 1244,
  "\u2581isn": 1245,
  "\u2581mocy": 1246,
  "\u2581wtedy": 1247,
  "\u2581amount": 1248,
  "\u2581line": 1249,
  "10": 1250,
  "\u2581miejscu": 1251,
  "\u2581Al": 1252,
  "\u2581played": 1253,
  "\u25812003": 1254,
  "dzie": 1255,
  "ity": 1256,
  "\u2581rozwoju": 1257,
  "\u2581hard": 1258,
  "\u2581special": 1259,
  "\u2581--": 1260,
  "\u2581Chyba": 1261,
  "\u2581Teraz": 1262,
  "\u2581moja": 1263,
  "\u2581tw\u00f3j": 1264,
  "et": 1265,
  "\u2581pro": 1266,
  "\u2581later": 1267,
  "\u2581sie": 1268,
  "\u2581dniu": 1269,
  "\u2581pkt": 1270,
  "pro": 1271,
  "\u2581produkcji": 1272,
  "\u2581jako\u015bci": 1273,
  "\u2581United": 1274,
  "\u2581general": 1275,
  "\u2581light": 1276,
  "\u2581hours": 1277,
  "\u2581dw\u00f3ch": 1278,
  "\u2581uwag\u0119": 1279,
  "\u2581zostanie": 1280,
  "\u2581ds": 1281,
  "\u2581above": 1282,
  "\u2581b\u0119dziesz": 1283,
  "\u2581kontroli": 1284,
  "\u2581wait": 1285,
  "\u2581lata": 1286,
  "\u2581whether": 1287,
  "\u2581Right": 1288,
  "\u2581John": 1289,
  "\u2581swoich": 1290,
  "\u2581Agreement": 1291,
  "\u2581Wi": 1292,
  "\u2581ka\u017cdego": 1293,
  "uj\u0119": 1294,
  "\u2581language": 1295,
  "5": 1296,
  "\u2581dlaczego": 1297,
  "\u2581heard": 1298,
  "\u2581making": 1299,
  "\u2581pierwszy": 1300,
  "\u2581wszyscy": 1301,
  "\u2581wasn": 1302,
  "\u2581Thanks": 1303,
  "\u2581close": 1304,
  "\u2581ci\u0105gu": 1305,
  "\u2581Naprawd\u0119": 1306,
  "\u2581pom\u00f3c": 1307,
  "\u2581wanna": 1308,
  "\u2581Sam": 1309,
  "\u2581says": 1310,
  "\u2581management": 1311,
  "\u2581okres": 1312,
  "\u2581ponad": 1313,
  "\u2581woman": 1314,
  "j\u0105ce": 1315,
  "ED": 1316,
  "v": 1317,
  "\u2581takiego": 1318,
  "\u2581example": 1319,
  "\u2581+": 1320,
  "\u2581musisz": 1321,
  "ary": 1322,
  "\u2581powodu": 1323,
  "\u2581become": 1324,
  "\u2581ca\u0142y": 1325,
  "and": 1326,
  "\u2581nice": 1327,
  "rze": 1328,
  "\u2581saying": 1329,
  "\u2581Hi": 1330,
  "\u2581dzi\u015b": 1331,
  "\u2581future": 1332,
  "\u2581k": 1333,
  "\u2581present": 1334,
  "\u2581cannot": 1335,
  "\u2581III": 1336,
  "\u2581poza": 1337,
  "\u2581English": 1338,
  "\u2581nadal": 1339,
  "\u2581process": 1340,
  "\u2581bit": 1341,
  "\u2581bring": 1342,
  "\u2581Nigdy": 1343,
  "\u2581President": 1344,
  "\u2581relevant": 1345,
  "\u2581hell": 1346,
  "\u2581applicable": 1347,
  "\u2581international": 1348,
  "um": 1349,
  "\u2581Panie": 1350,
  "\u2581znale\u017a\u0107": 1351,
  "\u2581oni": 1352,
  "\u2581Parlamentu": 1353,
  "\u2581Me": 1354,
  "\u2581polityki": 1355,
  "\u258160": 1356,
  "\u2581niekt\u00f3rych": 1357,
  "\u2581przepis\u00f3w": 1358,
  "ant": 1359,
  "\u2581July": 1360,
  "\u2581knew": 1361,
  "\u2581l": 1362,
  "\u2581Tu": 1363,
  "\u2581Nale\u017cy": 1364,
  "os": 1365,
  "\u2581friends": 1366,
  "\u2581yeah": 1367,
  "\u2581wie": 1368,
  "\u2581costs": 1369,
  "\u2581procedure": 1370,
  "\u2581mojego": 1371,
  "\u2581Jehovah": 1372,
  "\u2581maybe": 1373,
  "\u2581minutes": 1374,
  "\u2581move": 1375,
  "acja": 1376,
  "\u2581str": 1377,
  "\u2581four": 1378,
  "\u2581young": 1379,
  "\u2581dobry": 1380,
  "\u2581action": 1381,
  "\u2581rights": 1382,
  "\u2581implementation": 1383,
  "ler": 1384,
  "ck": 1385,
  "\u2581face": 1386,
  "\u2581true": 1387,
  "\u2581health": 1388,
  "\u25812016": 1389,
  "\u2581my\u015bli": 1390,
  "\u2581sw\u00f3j": 1391,
  "\u015bcie": 1392,
  "ono": 1393,
  "\u2581dlatego": 1394,
  "\u2581razie": 1395,
  "eniu": 1396,
  "\u2581death": 1397,
  "ion": 1398,
  "Nie": 1399,
  "\u2581Be": 1400,
  "\u2581zbyt": 1401,
  "\u2581x": 1402,
  "\u2581znaczy": 1403,
  "\u2581a\u017c": 1404,
  "\u2581total": 1405,
  "\u2581kt\u00f3r\u0105": 1406,
  "\u2581Ko": 1407,
  "\u2581za\u0142\u0105czniku": 1408,
  "o\u015bci": 1409,
  "\u2581Man": 1410,
  "\u2581Jego": 1411,
  "\u2581either": 1412,
  "\u2581typu": 1413,
  "\u2581sieci": 1414,
  "we": 1415,
  "\u2581wam": 1416,
  "ster": 1417,
  "\u2581robisz": 1418,
  "\u2581zobaczy\u0107": 1419,
  ");": 1420,
  "\u2581ko": 1421,
  "\u2581prawo": 1422,
  "\u2581badania": 1423,
  "\u2581legal": 1424,
  "\u2581\u015bwiecie": 1425,
  "\u2581Musimy": 1426,
  "\u2581read": 1427,
  "\u2581systems": 1428,
  "\u2581Boga": 1429,
  "\u2581lepiej": 1430,
  "\u2581single": 1431,
  "son": 1432,
  "lu": 1433,
  "\u2581musz\u0105": 1434,
  "\u00f3": 1435,
  "\u2581baby": 1436,
  "\u2581situation": 1437,
  "di": 1438,
  "a\u015b": 1439,
  "\u2581grudnia": 1440,
  "\u2581da": 1441,
  "\u2581local": 1442,
  "\u2581Dlatego": 1443,
  "\u2581B\u00f3g": 1444,
  "\u2581takim": 1445,
  "szy": 1446,
  "\u2581moment": 1447,
  "kiem": 1448,
  "der": 1449,
  "\u2581dzieje": 1450,
  "\u2581rok": 1451,
  "\u2581znajduje": 1452,
  "\u2581phone": 1453,
  "\u2581wife": 1454,
  "\u2581Mamy": 1455,
  "\u017a": 1456,
  "\u2581required": 1457,
  "un": 1458,
  "\u2581opinion": 1459,
  "\u2581makes": 1460,
  "\u2581five": 1461,
  "\u2581mojej": 1462,
  "20": 1463,
  "\u2581hope": 1464,
  "\u2581swoim": 1465,
  "\u2581nowych": 1466,
  "\u2581energii": 1467,
  "\u2581Dz": 1468,
  "\u25812002": 1469,
  "\u2581Le": 1470,
  "\u2581Hello": 1471,
  "6": 1472,
  "\u2581osoby": 1473,
  "me": 1474,
  "\u2581chyba": 1475,
  "\u2581warunki": 1476,
  "\u2581du\u017co": 1477,
  "ad": 1478,
  "\u2581jednego": 1479,
  "\u2581minut": 1480,
  "\u2581His": 1481,
  "\u201d.": 1482,
  "\u2581June": 1483,
  "\u2581film": 1484,
  "\u2581ready": 1485,
  "\u2581After": 1486,
  "\u2581trade": 1487,
  "\u2581p\u00f3\u017aniej": 1488,
  "\u2581powinien": 1489,
  "\u2581Chcesz": 1490,
  "ul": 1491,
  "no\u015b\u0107": 1492,
  "\u2581Pi": 1493,
  "\u2581jakie": 1494,
  "\u2581plik": 1495,
  "a\u0107": 1496,
  "\u2581morning": 1497,
  "\u2581clear": 1498,
  "\u2581centrum": 1499,
  "\u2581jednym": 1500,
  "land": 1501,
  "\u2581r\u00f3\u017cnych": 1502,
  "\u2581killed": 1503,
  "\u2581safety": 1504,
  "\u2581wiedzie\u0107": 1505,
  "\u2581lecz": 1506,
  "\u2581noc": 1507,
  "\u2581party": 1508,
  "\u2581OJ": 1509,
  "\u2581samym": 1510,
  "\u2581results": 1511,
  "ian": 1512,
  "\u2581wzgl\u0119du": 1513,
  "19": 1514,
  "mail": 1515,
  "\u2581Mog\u0119": 1516,
  "\u2581nasze": 1517,
  "ha": 1518,
  "\u2581wouldn": 1519,
  "\u2581extension": 1520,
  "\u2581More": 1521,
  "\u2581C\u00f3\u017c": 1522,
  "ru": 1523,
  "per": 1524,
  "\u2581mo\u017cliwo\u015bci": 1525,
  "\u2581areas": 1526,
  "\u2581bada\u0144": 1527,
  "\u2581Mi": 1528,
  "\u2581Kto": 1529,
  "\u2581Oczywi\u015bcie": 1530,
  "\u2581concerning": 1531,
  "\u2581established": 1532,
  "\u2581stanowi": 1533,
  "\u2581wsp\u00f3\u0142pracy": 1534,
  "\u2581szybko": 1535,
  "\u2581fucking": 1536,
  "\u2581alone": 1537,
  "\u2581gra": 1538,
  "\u2581reason": 1539,
  "Po": 1540,
  "\u2581women": 1541,
  "\u2581miasta": 1542,
  "\u2581OK": 1543,
  "\u2581sytuacji": 1544,
  "\u2581Wait": 1545,
  "\u2581Have": 1546,
  "im": 1547,
  "\u2581jaki": 1548,
  "\u2581kraju": 1549,
  "\u2581experience": 1550,
  "\u2581oceny": 1551,
  "be": 1552,
  "\u2581zawiera": 1553,
  "\u2581authority": 1554,
  "\u2581considered": 1555,
  "\u2581pomi\u0119dzy": 1556,
  "\u2581office": 1557,
  "\u2581industry": 1558,
  "du": 1559,
  "ang": 1560,
  "\u2581week": 1561,
  "\u2581la": 1562,
  "ol": 1563,
  "\u2581turn": 1564,
  "\u2581bar": 1565,
  "\u2581state": 1566,
  "\u00b0": 1567,
  "\u2581soon": 1568,
  "\u2581project": 1569,
  "\u2581cooperation": 1570,
  "\u2581Mo\u017cesz": 1571,
  "\u2581boy": 1572,
  "\u2581swojej": 1573,
  "\u2581jedno": 1574,
  "\u2581known": 1575,
  "\u017ce": 1576,
  "\u2581Cze\u015b\u0107": 1577,
  "\u2581pay": 1578,
  "\u25812000": 1579,
  "ow": 1580,
  "\u2581wcze\u015bniej": 1581,
  "\u2581low": 1582,
  "ate": 1583,
  "\u2581research": 1584,
  "as": 1585,
  "\u2581dzia\u0142alno\u015bci": 1586,
  "\u2581ex": 1587,
  "\u2581gra\u0142": 1588,
  "\u2581main": 1589,
  "\u2581panie": 1590,
  "\u2581Ka": 1591,
  "\u2581twoje": 1592,
  "owany": 1593,
  "\u2581wieku": 1594,
  "cja": 1595,
  "\u2581moj\u0105": 1596,
  "\u2581zasady": 1597,
  "\u2581aktualizacji": 1598,
  "\u2581lost": 1599,
  "min": 1600,
  "\u2581problems": 1601,
  "zi": 1602,
  "\u2581M\u00f3j": 1603,
  "ent": 1604,
  "\u2581translated": 1605,
  "\u2581i\u015b\u0107": 1606,
  "uj": 1607,
  "\u2581nowe": 1608,
  "\u2581naszych": 1609,
  "\u2581musz\u0119": 1610,
  "\u2581amended": 1611,
  "\u2581najbardziej": 1612,
  "\u2581guess": 1613,
  "\u2581technical": 1614,
  "\u2581miesi\u0119cy": 1615,
  "\u2581Wien": 1616,
  "\u2581okresie": 1617,
  "\u2581town": 1618,
  "\u2581adopted": 1619,
  "pi": 1620,
  "j\u0119": 1621,
  "\u2581increase": 1622,
  "\u2581programme": 1623,
  "\u2581innymi": 1624,
  "uj\u0105": 1625,
  "\u2581Mo": 1626,
  "owa\u0142": 1627,
  "\u2581sob\u0105": 1628,
  "sa": 1629,
  "\u2581krwi": 1630,
  "\u2581ka\u017cdym": 1631,
  "\u2581current": 1632,
  "00": 1633,
  "\u2581jedynie": 1634,
  "\u2581meeting": 1635,
  "\u2581cases": 1636,
  "\u2581st\u0105d": 1637,
  "\u2581companies": 1638,
  "\u2581others": 1639,
  "\u2581pretty": 1640,
  "\u2581nast\u0119puj\u0105ce": 1641,
  "\u2581sector": 1642,
  "ung": 1643,
  "\u2581najmniej": 1644,
  "\u2581ka\u017cdej": 1645,
  "anie": 1646,
  "\u2581updates": 1647,
  "rzy": 1648,
  "\u2581shit": 1649,
  "j\u0105cy": 1650,
  "\u2581Take": 1651,
  "\u2581October": 1652,
  "zie": 1653,
  "\u2581easy": 1654,
  "\u2581page": 1655,
  "\u2581private": 1656,
  "\u2581Bardzo": 1657,
  "\u2581include": 1658,
  "\u2581cost": 1659,
  "\u2581January": 1660,
  "ak": 1661,
  "\u2581potem": 1662,
  "\u2581gotta": 1663,
  "\u2581laid": 1664,
  "\u2581przeciw": 1665,
  "\u2581model": 1666,
  "\u2581i\u017c": 1667,
  "\u2581doctor": 1668,
  "\u2581word": 1669,
  "cze": 1670,
  "\u2581gave": 1671,
  "\u2581Daj": 1672,
  "ness": 1673,
  "\u2581due": 1674,
  "\u2581wniosek": 1675,
  "\u2581pytanie": 1676,
  "\u2581Lord": 1677,
  "\u2581Sorry": 1678,
  "50": 1679,
  "\u2581myself": 1680,
  "gu": 1681,
  "\u2581Aby": 1682,
  "\u2581field": 1683,
  "eni": 1684,
  "\u2581contact": 1685,
  "\u2581wants": 1686,
  "\u2581ile": 1687,
  "ist": 1688,
  "\u2581result": 1689,
  "\u2581existing": 1690,
  "\u2581zatem": 1691,
  "\u2581Tw\u00f3j": 1692,
  "\u2581trzeba": 1693,
  "\u2581grupy": 1694,
  "n\u0119": 1695,
  "dzi": 1696,
  "\u2581innego": 1697,
  "\u2581ka\u017cdy": 1698,
  "\u2581dziedzinie": 1699,
  "no\u015bci": 1700,
  "\u2581size": 1701,
  "\u25811010": 1702,
  "\u2581Added": 1703,
  "\u2581dobra": 1704,
  "\u2581powinna": 1705,
  "\u2581address": 1706,
  "\u2581poziomie": 1707,
  "\u2581thereof": 1708,
  "\u2581robi\u0107": 1709,
  "\u2581nami": 1710,
  "\u2581nadziej\u0119": 1711,
  "\u25811.": 1712,
  "\u2581St": 1713,
  "\u2581content": 1714,
  "\u2581Christ": 1715,
  "km": 1716,
  "ine": 1717,
  "\u2581Czemu": 1718,
  "\u2581training": 1719,
  "\u2581Pa": 1720,
  "sze": 1721,
  "\u2581t\u0105": 1722,
  "\u2581b\u0119dziemy": 1723,
  "\u2581offer": 1724,
  "\u2581beautiful": 1725,
  "\u2581standard": 1726,
  "\u2581Wsp\u00f3lnoty": 1727,
  "\u2581asked": 1728,
  "ner": 1729,
  "\u2581anyone": 1730,
  "\u2581okre\u015blonych": 1731,
  "\u2581final": 1732,
  "\u2581m\u00f3g\u0142": 1733,
  "\u2581zastosowanie": 1734,
  "\u017cy": 1735,
  "\u2581prices": 1736,
  "\u2581jaki\u015b": 1737,
  "\u2581gone": 1738,
  "\u2581effect": 1739,
  "\u2581Republic": 1740,
  "\u2581Stop": 1741,
  "\u2581niniejszej": 1742,
  "cia": 1743,
  "\u2581members": 1744,
  "\u2581Niech": 1745,
  "\u2581Nawet": 1746,
  "\u2581deal": 1747,
  "\u2581directly": 1748,
  "\u2581die": 1749,
  "ke": 1750,
  "\u2581naszej": 1751,
  "ran": 1752,
  "ina": 1753,
  "\u2581musimy": 1754,
  "\u2581half": 1755,
  "\u2581happy": 1756,
  "\u2581My\u015bl\u0119": 1757,
  "\u2581happen": 1758,
  "\u2581lipca": 1759,
  "lan": 1760,
  "\u2581words": 1761,
  "\u2581child": 1762,
  "\u2581door": 1763,
  "\u2581grami": 1764,
  "\u2581rate": 1765,
  "\u2581competent": 1766,
  "\u2581brother": 1767,
  "\u2581building": 1768,
  "\u2581W\u0142a\u015bnie": 1769,
  "\u2581thinking": 1770,
  "\u2581book": 1771,
  "\u2581equipment": 1772,
  "\u2581zwi\u0105zane": 1773,
  "8": 1774,
  "\u2581position": 1775,
  "Dz": 1776,
  "ir": 1777,
  "\u2581inside": 1778,
  "\u2581site": 1779,
  "\u2581details": 1780,
  "\u2581natural": 1781,
  "\u2581Dodane": 1782,
  "\u2581Odtw\u00f3rz": 1783,
  "\u2581Will": 1784,
  "\u2581luzu": 1785,
  "\u2581ml": 1786,
  "\u2581spraw": 1787,
  "\u2581levels": 1788,
  "pe": 1789,
  "tor": 1790,
  "\u2581cz\u0119sto": 1791,
  "\u2581living": 1792,
  "\u2581dzisiaj": 1793,
  "\u2581code": 1794,
  "\u2581met": 1795,
  "\u2581rest": 1796,
  "\u2581haven": 1797,
  "\u2581Rozporz\u0105dzenie": 1798,
  "\u2581key": 1799,
  "\u2581Paul": 1800,
  "\u2581mo\u017cliwe": 1801,
  "\u2581according": 1802,
  "\u2581Ro": 1803,
  "ana": 1804,
  "\u2581Roz": 1805,
  "\u2581naszego": 1806,
  "\u2581upon": 1807,
  "\u2581truth": 1808,
  "\u2581pewno": 1809,
  "\u2581bed": 1810,
  "\u2581oko\u0142o": 1811,
  "\u258190": 1812,
  "\u2581czerwca": 1813,
  "\u2581pa": 1814,
  "\u2581front": 1815,
  "\u2581located": 1816,
  "\u2581top": 1817,
  "\u2581tyle": 1818,
  "\u2581started": 1819,
  "owana": 1820,
  "\u2581d\u0142ugo": 1821,
  "sk": 1822,
  "\u2581Ben": 1823,
  "\u2581comes": 1824,
  "\u2581wed\u0142ug": 1825,
  "\u2581odpowiedzi": 1826,
  "\u2581Sp": 1827,
  "\u2581\u20ac": 1828,
  "\u2581cz\u0142owieka": 1829,
  "\u2581kogo\u015b": 1830,
  "\u2581di": 1831,
  "\u2581zar\u00f3wno": 1832,
  "\u2581needed": 1833,
  "\u2581pomoc\u0105": 1834,
  "\u2581Gdy": 1835,
  "i\u0119": 1836,
  "\u2581wp\u0142yw": 1837,
  "\u2581additional": 1838,
  "\u2581outside": 1839,
  "men": 1840,
  "\"?": 1841,
  "\u0142u": 1842,
  "den": 1843,
  "\u2581Mar": 1844,
  "\u2581nimi": 1845,
  "owie": 1846,
  "\u00e9": 1847,
  "\u2581Komisj\u0119": 1848,
  "\u2581ok": 1849,
  "11": 1850,
  "\u2581San": 1851,
  "\u2581terms": 1852,
  "\u2581firmy": 1853,
  "\u2581Free": 1854,
  "\u2581material": 1855,
  "\u2581personal": 1856,
  "\u00e1": 1857,
  "\u2581zdj\u0119cia": 1858,
  "\u2581Ze": 1859,
  "\u2581large": 1860,
  "\u2581Tell": 1861,
  "\u2581bezpo\u015brednio": 1862,
  "se": 1863,
  "AL": 1864,
  "\u2581Musisz": 1865,
  "\u2581among": 1866,
  "\u2581wa\u017cne": 1867,
  "\u2581thank": 1868,
  "\u2581S\u0105": 1869,
  "\u2581sprzeda\u017cy": 1870,
  "\u2581probably": 1871,
  "\u2581rodzaju": 1872,
  "\u2581dose": 1873,
  "\u2581request": 1874,
  "\u2581effects": 1875,
  "\u2581proposal": 1876,
  "\u2581pieni\u0105dze": 1877,
  "\u2581zanim": 1878,
  "\u2581sent": 1879,
  "\u2581powinno": 1880,
  "\u2581Wszystkie": 1881,
  "\u2581website": 1882,
  "\u2581Ho": 1883,
  "7": 1884,
  "ier": 1885,
  "ania": 1886,
  "\u2581offers": 1887,
  "\u2581n": 1888,
  "\u2581goods": 1889,
  "id": 1890,
  "\u2581Like": 1891,
  "\u2581Ponadto": 1892,
  "\u2581late": 1893,
  "To": 1894,
  "\u258180": 1895,
  "\u2581send": 1896,
  "\u2581zarz\u0105dzania": 1897,
  "\u2581przeciwko": 1898,
  "\u2581everyone": 1899,
  "mar": 1900,
  "12": 1901,
  "\u25812017": 1902,
  "\u2581framework": 1903,
  "\u2581establishing": 1904,
  "\u2581Data": 1905,
  "\u2581kon": 1906,
  "\u2581short": 1907,
  "*": 1908,
  "fer": 1909,
  "\u2581przepisy": 1910,
  "\u2581past": 1911,
  "\u2581containing": 1912,
  "\u2581jedn\u0105": 1913,
  "\u2581dom": 1914,
  "\u2581safe": 1915,
  "\u2581cen": 1916,
  "\u2581age": 1917,
  "ber": 1918,
  "\u2581jakie\u015b": 1919,
  "\u2581twoja": 1920,
  "\u2581walk": 1921,
  "kon": 1922,
  "\u2581General": 1923,
  "\u2581sound": 1924,
  "age": 1925,
  "bu": 1926,
  "\u2581Bank": 1927,
  "25": 1928,
  "\u2581map": 1929,
  "\u2581Some": 1930,
  "\u2581Air": 1931,
  "\u2581USA": 1932,
  "\u2581points": 1933,
  "\u2581Ar": 1934,
  "\u2581wygl\u0105da": 1935,
  "ator": 1936,
  "\u2581robi": 1937,
  "acj\u0119": 1938,
  "\u2581weeks": 1939,
  "\u2581fun": 1940,
  "\u2581200": 1941,
  "\u2581From": 1942,
  "\u2581Chod\u017a": 1943,
  "\u2581przypadkach": 1944,
  "\u2581investment": 1945,
  "\u2581table": 1946,
  "40": 1947,
  "\u2581March": 1948,
  "\u2581leku": 1949,
  "+": 1950,
  "ling": 1951,
  "\u2581kg": 1952,
  "gen": 1953,
  "ting": 1954,
  "\u2581Li": 1955,
  "\u2581brought": 1956,
  "\u2581wish": 1957,
  "\u2581though": 1958,
  "\u2581works": 1959,
  "\u2581par": 1960,
  "\u2581pe\u0142ni": 1961,
  "\u2581Powiedz": 1962,
  "0": 1963,
  "\u2581study": 1964,
  "\u2581couldn": 1965,
  "\u2581\u015bwiata": 1966,
  "\u2581punkt": 1967,
  "\u2581fire": 1968,
  "\u2581wniosku": 1969,
  "\u201d,": 1970,
  "\u2581udzia\u0142": 1971,
  "\u2581eyes": 1972,
  "\u2581taka": 1973,
  "tan": 1974,
  "\u2581America": 1975,
  "\u2581carried": 1976,
  "\u2581hands": 1977,
  "\u2581exactly": 1978,
  "\u2581Ona": 1979,
  "OJ": 1980,
  "\u2581team": 1981,
  "\u2581individual": 1982,
  "\u2581Court": 1983,
  "\u2581Strona": 1984,
  "\u2581koszt\u00f3w": 1985,
  "\u2581April": 1986,
  "\u2581zosta\u0142o": 1987,
  "\u2581purpose": 1988,
  "\u2581\u015bwiat": 1989,
  "\u2581kids": 1990,
  "\u2581swojego": 1991,
  "\u2581region": 1992,
  "\u2581range": 1993,
  "\u2581persons": 1994,
  "\u2581ceny": 1995,
  "\u2581Up": 1996,
  "\u2581sprawy": 1997,
  "\u2581ziemi": 1998,
  "rod": 1999,
  "\u2581pokoju": 2000,
  "\u2581cm": 2001,
  "\u2581chwili": 2002,
  "\u2581wody": 2003,
  "\u2581listen": 2004,
  "fa": 2005,
  "\u2581stuff": 2006,
  "li\u015bcie": 2007,
  "\u2581poziom": 2008,
  "\u2581opinii": 2009,
  "\u2581Hej": 2010,
  "\u2581posiada": 2011,
  "ho": 2012,
  "\u2581dr": 2013,
  "sie": 2014,
  "\u2581Da": 2015,
  "\u2581tonight": 2016,
  "\u2581Wszyscy": 2017,
  "\u2581agreement": 2018,
  "kami": 2019,
  "\u2581mniej": 2020,
  "\u2581Jo": 2021,
  "\u2581longer": 2022,
  "\u2581hold": 2023,
  "\u2581serious": 2024,
  "mie": 2025,
  "\u2581ko\u0144cu": 2026,
  "\u2581September": 2027,
  "\u2581Sta": 2028,
  "\u2581okre\u015blone": 2029,
  "\u2581System": 2030,
  "24": 2031,
  "\u2581zwierz\u0105t": 2032,
  "\u2581stycznia": 2033,
  "\u2581share": 2034,
  "\u2581weight": 2035,
  "\u2581El": 2036,
  "\u2581ilo\u015bci": 2037,
  "\u2581inter": 2038,
  "\u2581Jeste\u015bmy": 2039,
  "\u2581us\u0142ugi": 2040,
  "\u2581jednej": 2041,
  "\u2581dzia\u0142a": 2042,
  "\u2581chance": 2043,
  "90": 2044,
  "\u2581Jack": 2045,
  "\u2581fight": 2046,
  "):": 2047,
  "\u2581byli": 2048,
  "\u2581Co\u015b": 2049,
  "\u2581six": 2050,
  "\u2581ha": 2051,
  "\u2581mo\u017cliwo\u015b\u0107": 2052,
  "\u2581reference": 2053,
  "stra": 2054,
  "\u2581resources": 2055,
  "\u2581almost": 2056,
  "\u2581Ob": 2057,
  "\u2581evidence": 2058,
  "\u2581Group": 2059,
  "\u2581drodze": 2060,
  "\u2581along": 2061,
  "30": 2062,
  "\u2581mia\u0142a": 2063,
  "\u2581nasz": 2064,
  "\u2581Pani": 2065,
  "?\"": 2066,
  "\u2581World": 2067,
  "\u2581kraj\u00f3w": 2068,
  "\u2581centre": 2069,
  "\u2581\u2019": 2070,
  "\u2581received": 2071,
  "\u2581znaczenie": 2072,
  "\u2581nocy": 2073,
  "c\u0105": 2074,
  "\u2581produkty": 2075,
  "\u2581zasad": 2076,
  "\u2581addition": 2077,
  "\u2581dziecko": 2078,
  "\u2581latach": 2079,
  "15": 2080,
  "\u2581potrzeby": 2081,
  "\u2581yes": 2082,
  "\u2581news": 2083,
  "9/": 2084,
  "\u2581responsible": 2085,
  "\u2581section": 2086,
  "\u2581hit": 2087,
  "\u2581knows": 2088,
  "\u2581Ra": 2089,
  "\u2581tobie": 2090,
  "\u2581Other": 2091,
  "\u2581issue": 2092,
  "\u2581active": 2093,
  "\u2581wobec": 2094,
  "\u2581capital": 2095,
  "\u2581covered": 2096,
  "i\u0107": 2097,
  "\u2581EN": 2098,
  "\u2581en": 2099,
  "\u2581Car": 2100,
  "\u2581below": 2101,
  "\u2581several": 2102,
  "\u2581kid": 2103,
  "\u2581procedures": 2104,
  "\u2581racj\u0119": 2105,
  "\u2581Sa": 2106,
  "In": 2107,
  "\u2581kilku": 2108,
  "\u2581enter": 2109,
  "\u2581included": 2110,
  "\u2581effective": 2111,
  "\u2581s\u0142owa": 2112,
  "\u2581zrobi\u0142": 2113,
  "ING": 2114,
  "\u2581assessment": 2115,
  "\u2581pracownik\u00f3w": 2116,
  "\u258132": 2117,
  "\u2581cover": 2118,
  "est": 2119,
  "\u258135": 2120,
  "\u2581looks": 2121,
  "ut": 2122,
  "\u2581bank": 2123,
  "\u2581Cz\u0142onkowskie": 2124,
  "\u2581innym": 2125,
  "\u2581minute": 2126,
  "\u2581examples": 2127,
  "j\u0105cego": 2128,
  "ley": 2129,
  "\u2581numer": 2130,
  "\u2581Bible": 2131,
  "\u2581Whereas": 2132,
  "\u2581projects": 2133,
  "\u2581return": 2134,
  "les": 2135,
  "\u2581impact": 2136,
  "\u2581sex": 2137,
  "\u2581godzin": 2138,
  "\u2581maj\u0105c": 2139,
  "\u2581organizacji": 2140,
  "\u2581France": 2141,
  "\u2581tax": 2142,
  "\u2581Komitetu": 2143,
  "\u2581Se": 2144,
  "\u2581dobre": 2145,
  "\u2581umowy": 2146,
  "\u2581tomorrow": 2147,
  "\u2581Rada": 2148,
  "\u2581Poniewa\u017c": 2149,
  "line": 2150,
  "bra": 2151,
  "\u2581imi\u0119": 2152,
  "\u2581land": 2153,
  "\u2581obecnie": 2154,
  "\u2581story": 2155,
  "\u2581operation": 2156,
  "\u2581Niniejsze": 2157,
  "\u2581worry": 2158,
  "\u2581supposed": 2159,
  "ard": 2160,
  "\u2581eat": 2161,
  "\u2581About": 2162,
  "\u2581Jeszcze": 2163,
  "\u2581often": 2164,
  "\u2581fuck": 2165,
  "\u2581ryzyka": 2166,
  "ive": 2167,
  "\u2581November": 2168,
  "\u2581Su": 2169,
  "\u2581Her": 2170,
  "\u2581adres": 2171,
  "\u2581wy\u0142\u0105cznie": 2172,
  "\u2581nowego": 2173,
  "\u2581dad": 2174,
  "\u2581stosowane": 2175,
  "\u2581behind": 2176,
  "rz": 2177,
  "\u2581maximum": 2178,
  "\u00b1": 2179,
  "\u2581Germany": 2180,
  "\u2581cut": 2181,
  "\u2581Europejsk\u0105": 2182,
  "80": 2183,
  "\u2581added": 2184,
  "\u2581zapewnienia": 2185,
  "\u2581changes": 2186,
  "\u25812001": 2187,
  "\u2581month": 2188,
  "\u2581issues": 2189,
  "60": 2190,
  "\u2581trzech": 2191,
  "\u2581chcia\u0142": 2192,
  "\u2581telefon": 2193,
  "\u2581warto\u015b\u0107": 2194,
  "lin": 2195,
  "\u2581\u017cadnych": 2196,
  "\u2581m\u00f3wi\u0107": 2197,
  "tra": 2198,
  "\u2581war": 2199,
  "\u2581kim": 2200,
  "tel": 2201,
  "\u00ea": 2202,
  "\u2581Really": 2203,
  "\u2581okolicy": 2204,
  "\u2581allow": 2205,
  "\u2581Am": 2206,
  "\u2581Google": 2207,
  "rs": 2208,
  "\u2581imieniu": 2209,
  "06": 2210,
  "\u2581prac\u0119": 2211,
  "\u2581police": 2212,
  "\u2581wci\u0105\u017c": 2213,
  "\u2581similar": 2214,
  "\u2581drink": 2215,
  "\u2581Ok": 2216,
  "\u2581Snapshot": 2217,
  "\u2581AND": 2218,
  "\u2581b\u0105d\u017a": 2219,
  "\u2581solution": 2220,
  "\u2581\u015brodowiska": 2221,
  "see": 2222,
  "\u2581Zawsze": 2223,
  "\u2581provides": 2224,
  "\u2581win": 2225,
  "\u2581zmian": 2226,
  "\u2581Bar": 2227,
  "\u2581capacity": 2228,
  "\u2581City": 2229,
  "\u2581import": 2230,
  "\u2581h": 2231,
  "\u2581uwa\u017ca": 2232,
  "\u2581trakcie": 2233,
  "ac": 2234,
  "\u2581\u017cyciu": 2235,
  "\u2581f": 2236,
  "are": 2237,
  "\u2581miejsc": 2238,
  "\u2581held": 2239,
  "bit": 2240,
  "\u2581review": 2241,
  "\u2581white": 2242,
  "05": 2243,
  "\u2581EESC": 2244,
  "owanych": 2245,
  "\u2581Listen": 2246,
  "str": 2247,
  "\u2581institutions": 2248,
  "\u2581naszym": 2249,
  "\u2581computer": 2250,
  "\u2581pa\u017adziernika": 2251,
  "va": 2252,
  "sko": 2253,
  "\u2581dictionary": 2254,
  "\u2581Kim": 2255,
  "6/": 2256,
  "\u2581dwie": 2257,
  "\u2581Sir": 2258,
  "art": 2259,
  "\u2581twoim": 2260,
  "\u2581firm": 2261,
  "\u2581animals": 2262,
  "\u2581questions": 2263,
  "\u2581dost\u0119p": 2264,
  "\u2581stosuje": 2265,
  "\u2581role": 2266,
  "\u2581warunk\u00f3w": 2267,
  "\u2581performance": 2268,
  "\u2581Internet": 2269,
  "\u2581realizacji": 2270,
  "\u2581search": 2271,
  "\u2581organ": 2272,
  "\u2581lead": 2273,
  "\u2581average": 2274,
  "\u2022": 2275,
  "\u2581Ba": 2276,
  "sh": 2277,
  "\u2581finansowych": 2278,
  "\u2581International": 2279,
  "sza": 2280,
  "\u2581zdrowia": 2281,
  "\u2581post": 2282,
  "\u2581standards": 2283,
  "\u2581Kingdom": 2284,
  "\u2581wraz": 2285,
  "\u2581mom": 2286,
  "21": 2287,
  "\u015b\u0107": 2288,
  "\u2581wymaga": 2289,
  "zo": 2290,
  "\u2581nature": 2291,
  "\u2581various": 2292,
  "01": 2293,
  "\u2581knowledge": 2294,
  "\u2581Zgodnie": 2295,
  "\u2581watch": 2296,
  "\u2581\u015bmierci": 2297,
  "\u2581Give": 2298,
  "\u2581sprawdzi\u0107": 2299,
  "\u2581continue": 2300,
  "\u2581prawie": 2301,
  "\u2581increased": 2302,
  "\u258170": 2303,
  "\u2581Live": 2304,
  "\u2581husband": 2305,
  "\u2581credit": 2306,
  "\u2581involved": 2307,
  "\u2581granted": 2308,
  "\u2581PC": 2309,
  "\u2581drzwi": 2310,
  "\u2581pa\u0144stwach": 2311,
  "\u2581speak": 2312,
  "\u2581En": 2313,
  "\u2581=": 2314,
  "\u2581maja": 2315,
  "war": 2316,
  "sy": 2317,
  "\u2581sub": 2318,
  "\u25812018": 2319,
  "\u2581Komitet": 2320,
  "lub": 2321,
  "\u2581First": 2322,
  "\u2581purposes": 2323,
  ">": 2324,
  "\u2581minimum": 2325,
  "\u2581rodziny": 2326,
  "\u2581buy": 2327,
  "\u2581activity": 2328,
  "\u2581budget": 2329,
  "\u25811999": 2330,
  "\u2581konieczne": 2331,
  "\u2581black": 2332,
  "\u2581trust": 2333,
  "nu": 2334,
  "of": 2335,
  "a\u0142": 2336,
  "\u2581ojciec": 2337,
  "\u2581died": 2338,
  "\u2581growth": 2339,
  "\u2581radio": 2340,
  "\u2581pa\u0144stwo": 2341,
  "aj": 2342,
  "\u2581dotyczy": 2343,
  "\u2581road": 2344,
  "\u2581gets": 2345,
  "\u2581quite": 2346,
  "for": 2347,
  "\u2581message": 2348,
  "\u2581leczenia": 2349,
  "\u2581potential": 2350,
  "\u2581t": 2351,
  "\u2581event": 2352,
  "wal": 2353,
  "ten": 2354,
  ":00": 2355,
  "niem": 2356,
  "\u2581basic": 2357,
  "@": 2358,
  "\u2581wysoko\u015bci": 2359,
  "\u2581pocz\u0105tku": 2360,
  "ger": 2361,
  "\u2581dok\u0142adnie": 2362,
  "\u2581Peter": 2363,
  "\u2581cross": 2364,
  "Fi": 2365,
  "\u2581kar": 2366,
  "\u2581Con": 2367,
  "\u2581status": 2368,
  "\u2581save": 2369,
  "\u2581[1],": 2370,
  "\u2581TO": 2371,
  "\u2581drugiej": 2372,
  "\u2581gas": 2373,
  "\u2581Kon": 2374,
  "\u2581Um": 2375,
  "\u2581parts": 2376,
  "\u2581000": 2377,
  "\u2581history": 2378,
  "\u2581couple": 2379,
  "ane": 2380,
  "\u2581pomys\u0142": 2381,
  "\u2581Great": 2382,
  "\u2581parties": 2383,
  "\u2581bi": 2384,
  "\u2581higher": 2385,
  "\u2581twojej": 2386,
  "\u2581cel": 2387,
  "\u2581himself": 2388,
  "\u2581sleep": 2389,
  "\u2581government": 2390,
  "\u2581rozporz\u0105dzeniem": 2391,
  "\u2581act": 2392,
  "\u2581transportu": 2393,
  "\u2581design": 2394,
  "\u2581hurt": 2395,
  "\u2581learn": 2396,
  "\u2581sea": 2397,
  "\u2581koniec": 2398,
  "\u2581Park": 2399,
  "\u2581Help": 2400,
  "\u2581wydaje": 2401,
  "\u2581mine": 2402,
  "\u2581stand": 2403,
  "\u2581break": 2404,
  "\u2581Nothing": 2405,
  "\u2581poni\u017cej": 2406,
  "ti": 2407,
  "\u2581sz": 2408,
  "\u2581lives": 2409,
  "\u2581competition": 2410,
  "\u2581Pa\u0144stwo": 2411,
  "\u2581plik\u00f3w": 2412,
  "\u2581300": 2413,
  "28": 2414,
  "\u2581Centrum": 2415,
  "\u2581Di": 2416,
  "\u2581answer": 2417,
  "\u2581inny": 2418,
  "\u2581space": 2419,
  "\u2581Y": 2420,
  "\u2581crazy": 2421,
  "\u2581environment": 2422,
  "\u2581Au": 2423,
  "14": 2424,
  "\u2581paid": 2425,
  "\u2581objectives": 2426,
  "ot": 2427,
  "9": 2428,
  "\u2581animal": 2429,
  "16": 2430,
  "\u2581cz\u0142owiek": 2431,
  "\u2581cia\u0142a": 2432,
  "\u2581kategorii": 2433,
  "\u2581darmo": 2434,
  "\u2581follow": 2435,
  "\u2581IV": 2436,
  "\u2581huh": 2437,
  "\u2581Gra": 2438,
  "era": 2439,
  "\u2581created": 2440,
  "\u2581music": 2441,
  "\u2581goes": 2442,
  "\u2581major": 2443,
  "\u2581pursuan": 2444,
  "\u2581serca": 2445,
  "\u2581near": 2446,
  "\u2581Pewnie": 2447,
  "\u2581daughter": 2448,
  "sto": 2449,
  "\u2581Articles": 2450,
  "ks": 2451,
  "\u2581especially": 2452,
  "\u2581parents": 2453,
  "\u2581hot": 2454,
  "he": 2455,
  "\u2581Show": 2456,
  "\u2581Ah": 2457,
  "2,": 2458,
  "\u2581education": 2459,
  "\u2581ku": 2460,
  "\u2581j\u0119zyk": 2461,
  "\u2581Jezus": 2462,
  "\u2581criteria": 2463,
  "\u2581mo": 2464,
  "95": 2465,
  "\u2581p\u00f3\u0142": 2466,
  "tic": 2467,
  "\u2581strong": 2468,
  "\u2581limit": 2469,
  "\u2581system\u00f3w": 2470,
  "\u2581South": 2471,
  "\u2581czego\u015b": 2472,
  "\u258136": 2473,
  "zna": 2474,
  "\u2581Moja": 2475,
  "\u2581significant": 2476,
  "so": 2477,
  "\u2581normal": 2478,
  "mer": 2479,
  "\u00ed": 2480,
  "\u2581za\u0142\u0105cznika": 2481,
  "\u2581ca\u0142o\u015bci": 2482,
  "\u2581legislation": 2483,
  "\u2581takes": 2484,
  "\u2581text": 2485,
  "\u2581odpowiednie": 2486,
  "\u2581oczy": 2487,
  "\u2581across": 2488,
  "\u2581replaced": 2489,
  "ver": 2490,
  "\u2581Ni": 2491,
  "\u2581anti": 2492,
  "\u2581Tam": 2493,
  "\u2581February": 2494,
  "dll": 2495,
  "\u2581istnieje": 2496,
  "pon": 2497,
  "\u2581odpowiednio": 2498,
  "\u2581software": 2499,
  "\u2581create": 2500,
  "\u2581class": 2501,
  "\u2581Sk\u0105d": 2502,
  "\u2581hour": 2503,
  "\u2581dost\u0119pne": 2504,
  "vi": 2505,
  "\u2581Brussels": 2506,
  "win": 2507,
  "\u2581Mary": 2508,
  "\u2581political": 2509,
  "\u2581Michael": 2510,
  "\u2581perfect": 2511,
  "\u2581my\u015blisz": 2512,
  "\u2581wypadku": 2513,
  "e\u0144": 2514,
  "\u2581oferuje": 2515,
  "\u2581early": 2516,
  "\u2581shot": 2517,
  "\u258145": 2518,
  "\u2581nowy": 2519,
  "\u2581by\u0142em": 2520,
  "\u2581transfer": 2521,
  "\u2581r\u00f3\u017cne": 2522,
  "\u2581By\u0142": 2523,
  "less": 2524,
  "\u2581mln": 2525,
  "\u2581obrotu": 2526,
  "\u2581Lu": 2527,
  "\u2581pierwsze": 2528,
  "time": 2529,
  "\u2581projekt": 2530,
  "\u2581nast\u0119pnie": 2531,
  "\u2581marca": 2532,
  "\u2581program\u00f3w": 2533,
  "\u2581cause": 2534,
  "\u2581\u017ceby\u015b": 2535,
  "op": 2536,
  "\u2581internal": 2537,
  "\u2581Jasne": 2538,
  "\u2581EC": 2539,
  "\u25814.": 2540,
  "\u2581Super": 2541,
  "\u2581Glosbe": 2542,
  "tion": 2543,
  "\u2581sentences": 2544,
  "\u2581zapewni\u0107": 2545,
  "ok": 2546,
  "\u258133": 2547,
  "\u2581entry": 2548,
  "\u2581China": 2549,
  "\u2581procedury": 2550,
  "\u2581Przed": 2551,
  "\u2581vehicle": 2552,
  "35": 2553,
  "owymi": 2554,
  "\u2581ponownie": 2555,
  "\u2581roli": 2556,
  "\u2581tried": 2557,
  "\u2581defined": 2558,
  "\u2581War": 2559,
  "\u2581wrze\u015bnia": 2560,
  "ice": 2561,
  "\u2581paper": 2562,
  "\u2581however": 2563,
  "\u2581Central": 2564,
  "\u2581niezb\u0119dne": 2565,
  "\u2581earth": 2566,
  "\u2581National": 2567,
  "\u2581ca\u0142ym": 2568,
  "\u2581moich": 2569,
  "kom": 2570,
  "5/": 2571,
  "\u2581sense": 2572,
  "\u2581EKES": 2573,
  "\u2581David": 2574,
  "\u2581produkt": 2575,
  "\u2581substancji": 2576,
  "\u2581nikt": 2577,
  "\u2581m\u00f3wisz": 2578,
  "\u2581Europie": 2579,
  "ance": 2580,
  "\u2581Information": 2581,
  "\u2581payment": 2582,
  "13": 2583,
  "\u2581Du": 2584,
  "\u2581chwil\u0119": 2585,
  "\u2581500": 2586,
  "\u2581Nikt": 2587,
  "\u2581analysis": 2588,
  "sen": 2589,
  "term": 2590,
  "Za": 2591,
  "3/": 2592,
  "\u2581oil": 2593,
  "\u2581PLN": 2594,
  "26": 2595,
  "<": 2596,
  "22": 2597,
  "\u2581applied": 2598,
  "\u2581choice": 2599,
  "\u2581jakim": 2600,
  "\u2581zda\u0144": 2601,
  "\u2581imports": 2602,
  "\u2581nast\u0119puje": 2603,
  "su": 2604,
  "\u2581postaci": 2605,
  "yl": 2606,
  "\u2581pewien": 2607,
  "ated": 2608,
  "\u2581niniejszym": 2609,
  "\u2581relating": 2610,
  "onych": 2611,
  "70": 2612,
  "ron": 2613,
  "\u2581drive": 2614,
  "\u2581girls": 2615,
  "18": 2616,
  "\u2581society": 2617,
  "29": 2618,
  "\u2581ca\u0142ej": 2619,
  "out": 2620,
  "\u2581submitted": 2621,
  "\u2581wynosi": 2622,
  "\u2581poziomu": 2623,
  "\u2581decyzj\u0119": 2624,
  "\u2581\u2022": 2625,
  "\u2581hair": 2626,
  "\u2581uwadze": 2627,
  "\u2581network": 2628,
  "\u2581spraw\u0119": 2629,
  "\u2581partner": 2630,
  "\u2581supply": 2631,
  "\u2581running": 2632,
  "\u2581ones": 2633,
  "ymi": 2634,
  "\u2581korzy\u015bci": 2635,
  "\u2581problemy": 2636,
  "\u2581studies": 2637,
  "\u2581inform": 2638,
  "\u2581przet\u0142umaczony": 2639,
  "\u2581szczeg\u00f3lnie": 2640,
  "\u2581values": 2641,
  "\u2581German": 2642,
  "\u2581projektu": 2643,
  "\u2581kiedy\u015b": 2644,
  "\u2581designed": 2645,
  "\u2581afraid": 2646,
  "\u2581ran": 2647,
  "ob": 2648,
  "\u2581decided": 2649,
  "\u2581brak": 2650,
  "gra": 2651,
  "\u2581si": 2652,
  "\u2581programmes": 2653,
  "ujemy": 2654,
  "\u2581waiting": 2655,
  "\u2581technology": 2656,
  "\u2581gdyby": 2657,
  "\u2581zapewnia": 2658,
  "\u2581uwagi": 2659,
  "ish": 2660,
  "\u2581rather": 2661,
  "\u2581regards": 2662,
  "patrz": 2663,
  "\u2581intended": 2664,
  "nt": 2665,
  "\u2581fully": 2666,
  "\u2581sama": 2667,
  "gar": 2668,
  "\u2581French": 2669,
  "\u2581Przez": 2670,
  "\u2581approach": 2671,
  "\u2581wchodzi": 2672,
  "\u2581Part": 2673,
  "\u2581Mo\u017cemy": 2674,
  "\u2581zostan\u0105": 2675,
  "\u2581Mrs": 2676,
  "\u2581Mom": 2677,
  "\u2581Since": 2678,
  "\u201c": 2679,
  "\u2581Ri": 2680,
  "que": 2681,
  "\u2581DLL": 2682,
  "\u2581materials": 2683,
  "\u2581sit": 2684,
  "\u2581actions": 2685,
  "\u2581attention": 2686,
  "1/": 2687,
  "\u2581Ne": 2688,
  "\u2581urz\u0105dzenia": 2689,
  "\u2581export": 2690,
  "\u2581kwietnia": 2691,
  "ge": 2692,
  "\u2581ca\u0142\u0105": 2693,
  "\u2581v": 2694,
  "\u2581media": 2695,
  "\u2581direct": 2696,
  "\u2581\u017cyje": 2697,
  "\u2581Any": 2698,
  "\u2581twoj\u0105": 2699,
  "\u2581double": 2700,
  "\u2581red": 2701,
  "\u2581Two": 2702,
  "\u2581pressure": 2703,
  "\u2581bodies": 2704,
  "\u2581step": 2705,
  "\u2581pozwala": 2706,
  "tro": 2707,
  "\u2581Add": 2708,
  "\u2581Art": 2709,
  "\u2581Ru": 2710,
  "\u2581ostatnio": 2711,
  "\u2581rozporz\u0105dzeniu": 2712,
  "\u2581wsparcia": 2713,
  "\u2581porozmawia\u0107": 2714,
  "\u2581entire": 2715,
  "\u2581stron": 2716,
  "\u2581complete": 2717,
  "\u2581Polska": 2718,
  "\u2581krajowych": 2719,
  "\u2581waste": 2720,
  "ph": 2721,
  "2/": 2722,
  "\u2581Q": 2723,
  "net": 2724,
  "\u2581problem\u00f3w": 2725,
  "\u2581Excuse": 2726,
  "\u2581pozycji": 2727,
  "\u2581wiadomo\u015bci": 2728,
  "\u2581Miss": 2729,
  "\u2581Zobacz": 2730,
  "\u2581CO": 2731,
  "\u2581groups": 2732,
  "con": 2733,
  "ex": 2734,
  "\u2581sign": 2735,
  "\u2581specified": 2736,
  "\u2581zw\u0142aszcza": 2737,
  "bie": 2738,
  "\u2581koszty": 2739,
  "31": 2740,
  "czne": 2741,
  "Do": 2742,
  "\u2581Star": 2743,
  "\u2581fast": 2744,
  "17": 2745,
  "\u2581organy": 2746,
  "\u2581Max": 2747,
  "\u2581Frank": 2748,
  "\u2581pain": 2749,
  "\u2581ko\u0144ca": 2750,
  "bar": 2751,
  "\u2581wsp\u00f3\u0142": 2752,
  "\u2581themselves": 2753,
  "\u2581Even": 2754,
  "\u2581seems": 2755,
  "\u2581Per": 2756,
  "\u2581choose": 2757,
  "\u2581super": 2758,
  "lar": 2759,
  "\u2581member": 2760,
  "\u2581listopada": 2761,
  "\u2581syn": 2762,
  "\u2581Red": 2763,
  "\u2581Sz": 2764,
  "\u2581trzecich": 2765,
  "\u2581\u017cywo": 2766,
  "\u2581August": 2767,
  "\u2581bym": 2768,
  "Na": 2769,
  "\u2581rooms": 2770,
  "\u2581czemu": 2771,
  "\u2581my\u015bl\u0119": 2772,
  "\u258134": 2773,
  "\u2581Wygl\u0105da": 2774,
  "\u2581associated": 2775,
  "\u2581monitoring": 2776,
  "\u2581rozw\u00f3j": 2777,
  "\u2581powy\u017cej": 2778,
  "\u2581(1)": 2779,
  "\u2581spok\u00f3j": 2780,
  "\u2581married": 2781,
  "\u2581wzrostu": 2782,
  "tek": 2783,
  "\u2581Kto\u015b": 2784,
  "\u2581gun": 2785,
  "ence": 2786,
  "port": 2787,
  "\u2581Tom": 2788,
  "\u2581kobiet": 2789,
  "\u2581published": 2790,
  "\u2581telling": 2791,
  "acje": 2792,
  "\u2581wzgl\u0119dem": 2793,
  "\u2581whatever": 2794,
  "ri": 2795,
  "\u2581\u015arodki": 2796,
  "4/": 2797,
  "\u2581ain": 2798,
  "\u2581investigation": 2799,
  "\u2581Moje": 2800,
  "\u2581w\u0142a\u015bciwe": 2801,
  "\u2581central": 2802,
  "\u2581wsp\u00f3lnego": 2803,
  "ste": 2804,
  "\u2581numbers": 2805,
  "\u2581listed": 2806,
  "\u2581largest": 2807,
  "\u2581trouble": 2808,
  "\u00c5": 2809,
  "\u2581thanks": 2810,
  "stan": 2811,
  "\u2581Contact": 2812,
  "\u2581Journal": 2813,
  "27": 2814,
  "\u2581Ciekawe": 2815,
  "\u2581Economic": 2816,
  "\u2581forward": 2817,
  "\u2581languages": 2818,
  "\u2581g\u0142\u00f3wna": 2819,
  "\u2581regional": 2820,
  "\u2581samego": 2821,
  "\u2581accommodation": 2822,
  "\u2581environmental": 2823,
  "\u2581star": 2824,
  "\u2581visit": 2825,
  "\u2581Official": 2826,
  "ism": 2827,
  "\u00ab": 2828,
  "\u2581stan": 2829,
  "\u2581developed": 2830,
  "\u2581pierwszym": 2831,
  "\u2581decyzja": 2832,
  "tal": 2833,
  "\u2581anymore": 2834,
  "\u2581protect": 2835,
  "acj\u0105": 2836,
  "\u2581duty": 2837,
  "\u2581instytucji": 2838,
  "ham": 2839,
  "\u2581video": 2840,
  "\u2581picture": 2841,
  "\u2581liczby": 2842,
  "jcie": 2843,
  "\u2581mie\u015bcie": 2844,
  "\u2581stary": 2845,
  "\u2581disease": 2846,
  "esz": 2847,
  "\u2581events": 2848,
  "\u2581IN": 2849,
  "\u2581zdanie": 2850,
  "\u2581trans": 2851,
  "\u258137": 2852,
  "\u2581exchange": 2853,
  "\u2581Traktat": 2854,
  "nika": 2855,
  "No": 2856,
  "\u2581contract": 2857,
  "\u2581charge": 2858,
  "\u2581High": 2859,
  "\u2581Jehowy": 2860,
  "09": 2861,
  "\u2581self": 2862,
  "\u2581Call": 2863,
  "day": 2864,
  "\u00fc": 2865,
  "sty": 2866,
  "\u2581towards": 2867,
  "\u2581Lo": 2868,
  "cu": 2869,
  "ite": 2870,
  "\u2581flight": 2871,
  "\u2581fixed": 2872,
  "ous": 2873,
  "\u2581annual": 2874,
  "\u2581Wi\u0119cej": 2875,
  "\u2581drogi": 2876,
  "\u2581EEA": 2877,
  "\u2581godziny": 2878,
  "\u2581etc": 2879,
  "\u2581w\u015br\u00f3d": 2880,
  "\u2581machine": 2881,
  "\u2581Cz\u0142onkowskich": 2882,
  "gan": 2883,
  "\u2581fishing": 2884,
  "\u2581twojego": 2885,
  "\u2581stron\u0119": 2886,
  "\u2581wyniki": 2887,
  "\u2581sa": 2888,
  "You": 2889,
  "\u2581dost\u0119pu": 2890,
  "\u2581markets": 2891,
  "ik": 2892,
  "\u2581otworzy\u0107": 2893,
  "\u2581Pre": 2894,
  "\u2581Close": 2895,
  "\u2581whose": 2896,
  "ji": 2897,
  "owaniu": 2898,
  "\u2581zastosowania": 2899,
  "\u2581Ga": 2900,
  "\u2581pieni\u0119dzy": 2901,
  "\u2581Bu": 2902,
  "\u2581zgodne": 2903,
  "\u2581jedna": 2904,
  "\u2581con": 2905,
  "\u2581towar\u00f3w": 2906,
  "\u258148": 2907,
  "\u2581Pe": 2908,
  "\u2581producent\u00f3w": 2909,
  "\u2581forget": 2910,
  "\u2581du": 2911,
  "\u2581handlu": 2912,
  "\u2581)": 2913,
  "\u2581Only": 2914,
  "\u2581shown": 2915,
  "\u2581Dad": 2916,
  "\u2581EUROPEAN": 2917,
  "\u2581Europy": 2918,
  "\u2581niech": 2919,
  "\u2581celem": 2920,
  "\u2581post\u0119powania": 2921,
  "\u2581Sure": 2922,
  "\u2581EOG": 2923,
  "\u2581[...]": 2924,
  "\u2581ryzyko": 2925,
  "skie": 2926,
  "\u2581measure": 2927,
  "\u2581itself": 2928,
  "TA": 2929,
  "\u2581beginning": 2930,
  "fi": 2931,
  "\u2581inaczej": 2932,
  "\u2581li": 2933,
  "1,": 2934,
  "ES": 2935,
  "por": 2936,
  "\u2581Traktatu": 2937,
  "\u2581ground": 2938,
  "\u2581liczba": 2939,
  "ted": 2940,
  "\u2581floor": 2941,
  "\u2581giving": 2942,
  "\u2581facilities": 2943,
  "\u2581\u017be": 2944,
  "\u2581Jaki": 2945,
  "\u2581lose": 2946,
  "\u2581staff": 2947,
  "23": 2948,
  "\u2581\u017cywno\u015bci": 2949,
  "\u2581George": 2950,
  "\u2581American": 2951,
  "\u2581instruments": 2952,
  "\u2581property": 2953,
  "\u2581feeling": 2954,
  "\u2581IT": 2955,
  "\u2581Therefore": 2956,
  "\u2581wzrost": 2957,
  "\u2581Those": 2958,
  "\u2581Fa": 2959,
  "\u2581worked": 2960,
  "\u2581da\u0107": 2961,
  "\u2581interested": 2962,
  "08": 2963,
  "Re": 2964,
  "cji": 2965,
  "\u2581reported": 2966,
  "\u2581My\u015blisz": 2967,
  "\u2581sister": 2968,
  "\u2581alive": 2969,
  "03": 2970,
  "\u2581rozumiem": 2971,
  "8/": 2972,
  "\u2581skin": 2973,
  "\u2581House": 2974,
  "\u2581Gu": 2975,
  "\u2581zabi\u0107": 2976,
  "\u2581calls": 2977,
  "\u2581wszelkie": 2978,
  "\u2581Father": 2979,
  "\u2581by\u0142oby": 2980,
  "\u2581greater": 2981,
  "ju": 2982,
  "y\u0107": 2983,
  "\u2581Dress": 2984,
  "\u2581Poka\u017c": 2985,
  "d\u017a": 2986,
  "j\u0105cym": 2987,
  "\u2581ojca": 2988,
  "\u2581sektora": 2989,
  "\u2581types": 2990,
  "ps": 2991,
  "\u2581agricultural": 2992,
  "\u2581limited": 2993,
  "\u2581obejmuje": 2994,
  "yfik": 2995,
  "\u2581showing": 2996,
  "\u2581emisji": 2997,
  "mp": 2998,
  "ujesz": 2999,
  "\u2581hate": 3000,
  "\u2581fall": 3001,
  "\u25812019": 3002,
  "\u2581do\u015b\u0107": 3003,
  "on\u0105": 3004,
  "\u2581practice": 3005,
  "\u2581typ": 3006,
  "ah": 3007,
  "\u2581York": 3008,
  "\u2581mogli": 3009,
  "Are": 3010,
  "\u2581powinni\u015bmy": 3011,
  "\u2581Przykro": 3012,
  "ec": 3013,
  "\u2581citizens": 3014,
  "\u2581proposed": 3015,
  "\u2581benefit": 3016,
  "\u2581playing": 3017,
  "\u2581device": 3018,
  "\u2581ram": 3019,
  "kach": 3020,
  "\u2581B\u0119dzie": 3021,
  "\u2581creating": 3022,
  "\u2581powierzchni": 3023,
  "fe": 3024,
  "\u2581Ca": 3025,
  "\u2581ship": 3026,
  "\u2581somebody": 3027,
  "\u2581kwestii": 3028,
  "ies": 3029,
  "99": 3030,
  "\u2581documents": 3031,
  "\u2581figure": 3032,
  "\u2581files": 3033,
  "\u2581administrative": 3034,
  "\u2581sprawa": 3035,
  "\u2581particularly": 3036,
  "\u2581znowu": 3037,
  "\u2581prowadzi": 3038,
  "prze": 3039,
  "\u2581Very": 3040,
  "OR": 3041,
  "\u2581p\u0142atno\u015bci": 3042,
  "\u2581assistance": 3043,
  "\u2581improve": 3044,
  "\u2581thus": 3045,
  "\u2581150": 3046,
  "\u2581North": 3047,
  "\u2581reports": 3048,
  "\u2581Ka\u017cdy": 3049,
  "\u2581ca\u0142e": 3050,
  "\u2581medical": 3051,
  "owali": 3052,
  "\u2581WE": 3053,
  "\u2581Europejska": 3054,
  "\u2581funds": 3055,
  "\u2581Which": 3056,
  "\u2581jutro": 3057,
  "97": 3058,
  "\u2581People": 3059,
  "\u2581Check": 3060,
  "\u2581zna": 3061,
  "\u2581origin": 3062,
  "\u2581proces": 3063,
  "skiego": 3064,
  "\u2581strategii": 3065,
  "\u2581np": 3066,
  "ide": 3067,
  "\u2581difficult": 3068,
  "\u2581prac": 3069,
  "\u2581(2)": 3070,
  "\u2581dawki": 3071,
  "\u2581miasto": 3072,
  "\u2581Mor": 3073,
  "\u2581version": 3074,
  "nic": 3075,
  "\u2581original": 3076,
  "\u2581nor": 3077,
  "\u258138": 3078,
  "\u2581technologii": 3079,
  "\u2581Je": 3080,
  "\u2581b\u0142\u0105d": 3081,
  "\u2581jakby": 3082,
  "\u2581document": 3083,
  "rot": 3084,
  "\u2581recommended": 3085,
  "\u2581rz\u0105d": 3086,
  "\u2581Ch": 3087,
  "\u2581carry": 3088,
  "unk": 3089,
  "\u2581fair": 3090,
  "\u2581airport": 3091,
  "\u2581czyli": 3092,
  "\u2581progress": 3093,
  "\u2581Albo": 3094,
  "stwo": 3095,
  "\u2581linii": 3096,
  "\u2581Europejski": 3097,
  "\u2581Czego": 3098,
  "\u2581Agency": 3099,
  "lot": 3100,
  "CH": 3101,
  ",\"": 3102,
  "\u2581DO": 3103,
  "\u2581Puzzle": 3104,
  "\u2581US": 3105,
  "\u2581simple": 3106,
  "\u2581Jednak": 3107,
  "\u2581se": 3108,
  "ium": 3109,
  "ali": 3110,
  "\u2581mia\u0142em": 3111,
  "\u00bf": 3112,
  "\u2581fa": 3113,
  "let": 3114,
  "\u2581zasob\u00f3w": 3115,
  "\u2581widzenia": 3116,
  "\u2581\u017cadnego": 3117,
  "\u2581employment": 3118,
  "\u2581fish": 3119,
  "!\"": 3120,
  "TER": 3121,
  "\u2581przewidziane": 3122,
  "\u2581tymi": 3123,
  "\u2581obraz": 3124,
  "\u2581Was": 3125,
  "\u2581THIS": 3126,
  "wer": 3127,
  "\u2581B\u0119d\u0119": 3128,
  "\u258175": 3129,
  "\u2581>": 3130,
  "\u2581zmieni\u0107": 3131,
  "\u2581photos": 3132,
  "\u2581takiej": 3133,
  "\u2581mieli": 3134,
  "\u2581implementing": 3135,
  "\u2581currently": 3136,
  "\u2581Polski": 3137,
  "\u2581detailed": 3138,
  "\u2581operations": 3139,
  "98": 3140,
  "\u2581vehicles": 3141,
  "\u2581King": 3142,
  "\u2581przysz\u0142o\u015bci": 3143,
  "\u2581pick": 3144,
  "\u2581Bi": 3145,
  "\u2581policies": 3146,
  "\u2581response": 3147,
  "\u2581bathroom": 3148,
  "\u2581plant": 3149,
  "\u2581panu": 3150,
  "\u2581nasz\u0105": 3151,
  "\u2581Jakie": 3152,
  "\u2581Euro": 3153,
  "\u2581applications": 3154,
  "LE": 3155,
  "\u2581Would": 3156,
  "\u2581sprawozdania": 3157,
  "\u2581ahead": 3158,
  "\u2581contains": 3159,
  "\u2581approval": 3160,
  "\u2581Mo\u017cna": 3161,
  "nymi": 3162,
  "\u2581clean": 3163,
  "\u2581parking": 3164,
  "\u2581follows": 3165,
  "\u2581sales": 3166,
  "\u2581Got": 3167,
  "\u2581lower": 3168,
  "\u2581lutego": 3169,
  "\u2581wyniku": 3170,
  "ris": 3171,
  "\u2581regarding": 3172,
  "\u2581Czech": 3173,
  "\u2581term": 3174,
  "\u2581mog\u0142a": 3175,
  "\u2581reviews": 3176,
  "\u2581ode": 3177,
  "\u2581Points": 3178,
  "\u2581travel": 3179,
  "\u2581Ad": 3180,
  "\u2581natychmiast": 3181,
  "\u2581potrzeb": 3182,
  "\u2581Mu": 3183,
  "\u2581uda": 3184,
  "\u2581reasons": 3185,
  "\u2581changed": 3186,
  "\u2581formie": 3187,
  "\u2581Czas": 3188,
  "Co": 3189,
  "-1": 3190,
  "\u2581strategy": 3191,
  "\u2581approved": 3192,
  "\u2581kobiety": 3193,
  "45": 3194,
  "\u2581receive": 3195,
  "\u2581drugi": 3196,
  "32": 3197,
  "\u2581coraz": 3198,
  "\u2581hotelu": 3199,
  "cal": 3200,
  "spo": 3201,
  "\u2581Plan": 3202,
  "\u2581komputer": 3203,
  "\u2581unit": 3204,
  "\u2581official": 3205,
  "\u2581faith": 3206,
  "\u2581mama": 3207,
  "\u2581Charlie": 3208,
  "\u2581places": 3209,
  "\u2581letter": 3210,
  "\u2581m\u00f3wi\u0119": 3211,
  "\u2581Ku": 3212,
  "\u2581miss": 3213,
  "\u2581built": 3214,
  "che": 3215,
  "\u2581port": 3216,
  "\u2581aplikacji": 3217,
  "\u2581seem": 3218,
  "\u2581allowed": 3219,
  "\u2581immediately": 3220,
  "\u2581matters": 3221,
  "\u2581eye": 3222,
  "\u2581global": 3223,
  "\u2581operating": 3224,
  "k\u0142ad": 3225,
  "\u2581urz\u0105dze\u0144": 3226,
  "\u2581Dzie\u0144": 3227,
  "\u2581sugar": 3228,
  "\u2581error": 3229,
  "\u2581principle": 3230,
  "\u2581ca\u0142kowicie": 3231,
  "\u2581fakt": 3232,
  "\u2581cookies": 3233,
  "\u2581samoch\u00f3d": 3234,
  "\u2581okre\u015bla": 3235,
  "\u2581Ciebie": 3236,
  "\u2581wina": 3237,
  "\u2581odpowied\u017a": 3238,
  "\u2581producers": 3239,
  "\u25810,": 3240,
  "\u2581box": 3241,
  "\u2581professional": 3242,
  "\u2581ka": 3243,
  "\u2581\u015a": 3244,
  "\u2581Przesta\u0144": 3245,
  "\u2581masy": 3246,
  "75": 3247,
  "hi": 3248,
  "\u2581CN": 3249,
  "mat": 3250,
  "ise": 3251,
  "rz\u0119": 3252,
  "\u2581everybody": 3253,
  "\u2581Christian": 3254,
  "\u2581blisko": 3255,
  "\u2581Keep": 3256,
  "\u2581terytorium": 3257,
  "our": 3258,
  "\u2581leaving": 3259,
  "\u2581pochodzenia": 3260,
  "\u2581blue": 3261,
  "\u2581Search": 3262,
  "\u2581okresu": 3263,
  "\u2581reach": 3264,
  "ER": 3265,
  "\u2581Kar": 3266,
  "\u00f6": 3267,
  "\u2581Centre": 3268,
  "\u2581al": 3269,
  "ble": 3270,
  "\u2581became": 3271,
  "48": 3272,
  "34": 3273,
  "\u2581expected": 3274,
  "\u2581civil": 3275,
  "\u2581method": 3276,
  "\u2581completely": 3277,
  "\u2581daily": 3278,
  "\u2581go\u015bci": 3279,
  "\u2581Office": 3280,
  "\u2581issued": 3281,
  "\u2581sp": 3282,
  "\u2581dzia\u0142alno\u015b\u0107": 3283,
  "\u2581equal": 3284,
  "\u2581wiemy": 3285,
  "\u2581peace": 3286,
  "\u2581krajach": 3287,
  "any": 3288,
  "end": 3289,
  "\u2581projekt\u00f3w": 3290,
  "36": 3291,
  "\u2581processing": 3292,
  "\u2581bro\u0144": 3293,
  "\u2581ho": 3294,
  "\u2581Brak": 3295,
  "\u2581shows": 3296,
  "\u2581g\u0142os": 3297,
  "\u2581przede": 3298,
  "\u2581chc\u0105": 3299,
  "ov": 3300,
  "\u2581zestaw": 3301,
  "\u2581Management": 3302,
  "\u2581apartment": 3303,
  "\u2581NA": 3304,
  "\u2581users": 3305,
  "\u2581cool": 3306,
  "\u2581Wow": 3307,
  "\u2581function": 3308,
  "tka": 3309,
  "\u2581promise": 3310,
  "\u2581communication": 3311,
  "\u2581spirit": 3312,
  "\u2581Inne": 3313,
  "\u2581ro": 3314,
  "\u2581publication": 3315,
  "lon": 3316,
  "\u2581aren": 3317,
  "\u2581[1]": 3318,
  "\u2581niekt\u00f3re": 3319,
  "\u2581sick": 3320,
  "\u258139": 3321,
  "\u2581VI": 3322,
  "\u2581bio": 3323,
  "czek": 3324,
  "\u2581worth": 3325,
  "\u2581opportunity": 3326,
  "RE": 3327,
  "\u2581University": 3328,
  "form": 3329,
  "\u2581Striptease": 3330,
  "\u2581S\u0142uchaj": 3331,
  "\u2581g\u0142owy": 3332,
  "\u2581quickly": 3333,
  "\u2581pary": 3334,
  "\u2581powietrza": 3335,
  "\u2581kept": 3336,
  "\u2581rozwi\u0105zania": 3337,
  "-2": 3338,
  "\u2581danego": 3339,
  "\u2581park": 3340,
  "\u2581dog": 3341,
  "bym": 3342,
  "\u2581marketing": 3343,
  "\u2581context": 3344,
  "\u2581\u017cebym": 3345,
  "\u2581chcemy": 3346,
  "EL": 3347,
  "02": 3348,
  "\u2581patient": 3349,
  "\u2581Rozumiem": 3350,
  "\u2581touch": 3351,
  "pie": 3352,
  "\u2581inwestycji": 3353,
  "\u2581pojazd\u00f3w": 3354,
  "07": 3355,
  "\u00f3r": 3356,
  "\u2581cz\u0142onk\u00f3w": 3357,
  "\u2581board": 3358,
  "\u2581szko\u0142y": 3359,
  "\u2581Program": 3360,
  "\u2581weather": 3361,
  "\u2581zatrudnienia": 3362,
  "\u2581pok\u00f3j": 3363,
  "\u2581odpowiednich": 3364,
  "\u2581previous": 3365,
  "mon": 3366,
  "000": 3367,
  "\u2581stosowanie": 3368,
  "\u2581musia\u0142": 3369,
  "\u2581connection": 3370,
  "\u2581economy": 3371,
  "\u2581jak\u0105": 3372,
  "\u2581j\u0119zyku": 3373,
  "\u0141": 3374,
  "\u2581rozszerzenia": 3375,
  "\u2581stanowi\u0105": 3376,
  "\u2581m\u00f3wi\u0105c": 3377,
  "\u2581Australia": 3378,
  "\u2581gdzie\u015b": 3379,
  "\u2581szczeg\u00f3\u0142owe": 3380,
  "\u2581przynajmniej": 3381,
  "\u2581akapit": 3382,
  "io": 3383,
  "\u2581modern": 3384,
  "\u2581og\u00f3le": 3385,
  "\u2581grup": 3386,
  "IT": 3387,
  "\u2581Twoja": 3388,
  "\u2581dis": 3389,
  "\u0142\u0105": 3390,
  "[": 3391,
  "\u2581instrument": 3392,
  "\u2581Cholera": 3393,
  "\u2581Room": 3394,
  "\u2581warunkach": 3395,
  "7/": 3396,
  "\u2581turned": 3397,
  "\u2581stupid": 3398,
  "ating": 3399,
  "EN": 3400,
  "han": 3401,
  "\u2581Time": 3402,
  "\u2581reform": 3403,
  "\u2581Twoje": 3404,
  "\u2581wyj\u0105tkiem": 3405,
  "\u2581climate": 3406,
  "\u2581lek": 3407,
  "tri": 3408,
  "\u2581Earth": 3409,
  "\u2581condition": 3410,
  "\u2581loss": 3411,
  "\u2581Kontakt": 3412,
  "\u2581pas": 3413,
  "\u2581construction": 3414,
  "\u2581Mike": 3415,
  "\u2581Board": 3416,
  "\u2581principles": 3417,
  "\u2581pozna\u0107": 3418,
  "\u2581format": 3419,
  "\u2581Open": 3420,
  "\u2581source": 3421,
  "\u2581znacznie": 3422,
  "cznie": 3423,
  "\u2581positive": 3424,
  "\u2581According": 3425,
  "\u2581Adam": 3426,
  "\u2581mi\u0142o\u015b\u0107": 3427,
  "\u2581card": 3428,
  "\u2581Special": 3429,
  "tur": 3430,
  "/4": 3431,
  "\u2581zostaje": 3432,
  "czu": 3433,
  "\u2581moc": 3434,
  "\u2581Tutaj": 3435,
  "\u2581HAS": 3436,
  "\u2581decisions": 3437,
  "\u2581tak\u0105": 3438,
  "nicy": 3439,
  "lat": 3440,
  "55": 3441,
  "\u2581publicznych": 3442,
  "\u2581Jan": 3443,
  "\u2581meaning": 3444,
  "\u2581z\u0142": 3445,
  "\u2581dinner": 3446,
  "\u2581speed": 3447,
  "\u2581Un": 3448,
  "bor": 3449,
  "2007": 3450,
  "\u2581enjoy": 3451,
  "kar": 3452,
  "\u2581s\u0142ownik": 3453,
  "\u2581presented": 3454,
  "\u2581Polsce": 3455,
  "\u2581du\u017ce": 3456,
  "\u2581\u015brodka": 3457,
  "ita": 3458,
  "cych": 3459,
  "\u2581organisations": 3460,
  "\u2581spo\u0142ecze\u0144stwa": 3461,
  "\u2581u\u017cycia": 3462,
  "\u0142ad": 3463,
  "\u2581kochanie": 3464,
  "cho": 3465,
  "\u2581cold": 3466,
  "\u2581Pana": 3467,
  "\u2581Paris": 3468,
  "\u2581\u015bmier\u0107": 3469,
  "\u2581Social": 3470,
  "\u2581wiadomo\u015b\u0107": 3471,
  "\u2581jobs": 3472,
  "\u2581temperature": 3473,
  "sk\u0105": 3474,
  "\u2581pytania": 3475,
  "\u25812,": 3476,
  "\u2581happens": 3477,
  "\u2581collection": 3478,
  "\u2581consider": 3479,
  "\u2581provision": 3480,
  "\u258142": 3481,
  "\u2581stosowa\u0107": 3482,
  "\u2581territory": 3483,
  "\u2581species": 3484,
  "\u2581scheme": 3485,
  "46": 3486,
  "\u2581Business": 3487,
  "\u2581orgasm": 3488,
  "38": 3489,
  "\u2581administration": 3490,
  "\u2581sometimes": 3491,
  "\u2581Sp\u00f3jrz": 3492,
  "\u2581Jezusa": 3493,
  "\u2581except": 3494,
  "\u2581Powi\u0119kszanie": 3495,
  "\u2581asking": 3496,
  "\u2581mentioned": 3497,
  "\u2581agree": 3498,
  "\u2581przywozu": 3499,
  "\u2581Ile": 3500,
  "\u2581u\u017cytkownik\u00f3w": 3501,
  "ans": 3502,
  "ft": 3503,
  "\u2581Tra": 3504,
  "\u2581court": 3505,
  "way": 3506,
  "\u2581missing": 3507,
  "dni": 3508,
  "j\u0105c\u0105": 3509,
  "\u2581mi\u0142o\u015bci": 3510,
  "star": 3511,
  "\u2581engine": 3512,
  "2)": 3513,
  "\u2581dniem": 3514,
  "\u2581boys": 3515,
  "\u2581ro\u015blin": 3516,
  "37": 3517,
  "\u2581center": 3518,
  "\u2581ma\u0142y": 3519,
  "\u2581felt": 3520,
  "\u2581podoba": 3521,
  "\u2581$": 3522,
  "\u2581rol\u0119": 3523,
  "\u2581sale": 3524,
  "\u2581Sch": 3525,
  "si\u0119": 3526,
  "\u2581YOU": 3527,
  "\u00f5": 3528,
  "\u2581tygodni": 3529,
  "\u2581otrzymuje": 3530,
  "\u2581hospital": 3531,
  "ez": 3532,
  "\u2581stosunku": 3533,
  "\u2581tytu\u0142u": 3534,
  "\u2581decide": 3535,
  "33": 3536,
  "\u2581rates": 3537,
  "\u2581Italy": 3538,
  "\u2581wyboru": 3539,
  "\u2581methods": 3540,
  "\u2581finansowe": 3541,
  "\u2581Ludzie": 3542,
  "\u2581rano": 3543,
  "\u2581record": 3544,
  "Q": 3545,
  "\u2581Development": 3546,
  "\u2581metody": 3547,
  "04": 3548,
  "\u2581Pa\u0144stw": 3549,
  "ial": 3550,
  "\u2581wszelkich": 3551,
  "if": 3552,
  "\u2581Service": 3553,
  "\u2581West": 3554,
  "\u2581kwoty": 3555,
  "\u2581pi": 3556,
  "\u2581tra": 3557,
  "\u2581powiem": 3558,
  "\u2581obywateli": 3559,
  "\u2581Podczas": 3560,
  "It": 3561,
  "skiej": 3562,
  "vo": 3563,
  "\u2581crisis": 3564,
  "\u2581Fund": 3565,
  "\u2581location": 3566,
  "\u2581external": 3567,
  "ren": 3568,
  "\u2581pi\u0119\u0107": 3569,
  "\u0104": 3570,
  "\u2581pobli\u017cu": 3571,
  "\u2581op": 3572,
  "\u2581punktu": 3573,
  "\u2581zgodno\u015bci": 3574,
  "ker": 3575,
  "\u2581materia\u0142\u00f3w": 3576,
  "\u2581cztery": 3577,
  "\u2581objective": 3578,
  "\u2581write": 3579,
  "\u2581zawieraj\u0105cy": 3580,
  "\u2581CD": 3581,
  "\u2581milk": 3582,
  "\u2581powiedzia\u0142a": 3583,
  "\u2581interesting": 3584,
  "ale": 3585,
  "\u2581remain": 3586,
  "\u2581procesu": 3587,
  "\u2581elements": 3588,
  "\u2581sto": 3589,
  "\u2581\u017ale": 3590,
  "\u2581ostatnich": 3591,
  "\u2581avoid": 3592,
  "\u2581stage": 3593,
  "red": 3594,
  "\u2581prevent": 3595,
  "use": 3596,
  "\u2581relationship": 3597,
  "\u2581wsparcie": 3598,
  "\u2581station": 3599,
  "\u2581kogo": 3600,
  "\u2581innej": 3601,
  "49": 3602,
  "\u2581idzie": 3603,
  "\u2581organisation": 3604,
  "\u2581clearly": 3605,
  "\u2581cz\u0119\u015bci\u0105": 3606,
  "\u2581unless": 3607,
  "\u2581Black": 3608,
  "\u2581opis": 3609,
  "\u2581born": 3610,
  "\u2581Oto": 3611,
  "\u2581responsibility": 3612,
  "\u2581build": 3613,
  "AR": 3614,
  "czna": 3615,
  "2006": 3616,
  "\u2581likely": 3617,
  "two": 3618,
  "\u2581Read": 3619,
  "\u2581by\u015b": 3620,
  "\u2581notice": 3621,
  "\u2581stanu": 3622,
  "\u2581expenditure": 3623,
  "\u2581dzia\u0142anie": 3624,
  "ep": 3625,
  "\u2581plus": 3626,
  "\u2581daje": 3627,
  "\u2581obu": 3628,
  "\u2581cele": 3629,
  "\u2581providing": 3630,
  "\u2581produced": 3631,
  "\u2581ca\u0142ego": 3632,
  "\u2581finansowania": 3633,
  "\u2581wiedzy": 3634,
  "\u2581le": 3635,
  "kra": 3636,
  "\u2581\u015awietnie": 3637,
  "\u2581subparagraph": 3638,
  "\u2581Does": 3639,
  "\u2581James": 3640,
  "\u2581Product": 3641,
  "\u2581Fi": 3642,
  "IN": 3643,
  "\u2581przemys\u0142u": 3644,
  "\u2581obszarze": 3645,
  "39": 3646,
  "\u2581sta": 3647,
  "\u2581kierunku": 3648,
  "\u2581Section": 3649,
  "\u2581Si": 3650,
  "\u2581essential": 3651,
  "\u2581Africa": 3652,
  "\u2581klient\u00f3w": 3653,
  "\u2581Tri": 3654,
  "\u2581gdy\u017c": 3655,
  "ns": 3656,
  "\u2581Nice": 3657,
  "\u015bmy": 3658,
  "44": 3659,
  "\u2581add": 3660,
  "\u2581category": 3661,
  "onego": 3662,
  "\u2581dziewczyna": 3663,
  "\u2581para": 3664,
  "\u2581przyj\u0119cia": 3665,
  "\u2581Cena": 3666,
  "\u2581osoba": 3667,
  "\u2581amending": 3668,
  "\u2581obj\u0119tych": 3669,
  "\u2581sort": 3670,
  "\u2581wynik\u00f3w": 3671,
  "\u2581adopt": 3672,
  "\u2581require": 3673,
  "\u2581Street": 3674,
  "\u2581Zjednoczone": 3675,
  "\u2581insurance": 3676,
  "\u2581maszyn": 3677,
  "eli": 3678,
  "\u2581Gi": 3679,
  "\u2581oczywi\u015bcie": 3680,
  "\u2581Most": 3681,
  "\u2581uses": 3682,
  "\u2581wp\u0142ywu": 3683,
  "\u2581Oni": 3684,
  "\u2581broni": 3685,
  "\u2581workers": 3686,
  "\u2581moving": 3687,
  "\u2581spa": 3688,
  "\u2581treated": 3689,
  "a\u017c": 3690,
  "\u2581Mark": 3691,
  "np": 3692,
  "\u2581kocha": 3693,
  "\u2581europejskich": 3694,
  "\u2581nazywa": 3695,
  "\u2581Dodaj": 3696,
  "\u2581metal": 3697,
  "\u2581[2]": 3698,
  "\u2581SA": 3699,
  "\u2581sektorze": 3700,
  "\u00b6": 3701,
  "\u2581(3)": 3702,
  "\u2581ways": 3703,
  "\u2581written": 3704,
  "\u0161": 3705,
  "cause": 3706,
  "eu": 3707,
  "\u2581prepared": 3708,
  "las": 3709,
  "\u2581injection": 3710,
  "uk": 3711,
  "\u2581Son": 3712,
  "\u2581finally": 3713,
  "\u2581My\u015bla\u0142em": 3714,
  "wa\u0142": 3715,
  "\u2581Bogu": 3716,
  "\u2581praktyk": 3717,
  "\u2581guarantee": 3718,
  "owa\u0142a": 3719,
  "\u2581writing": 3720,
  "\u2581sk\u0142ada": 3721,
  "\u2581um": 3722,
  "\u2581scope": 3723,
  "\u2581g\u00f3ry": 3724,
  "ET": 3725,
  "\u2581bu": 3726,
  "kry": 3727,
  "\u2581reduce": 3728,
  "i\u0105": 3729,
  "\u2581pewnie": 3730,
  "\u2581wr\u00f3ci\u0107": 3731,
  "\u2581sta\u0107": 3732,
  "\u2581funny": 3733,
  "\u2581whom": 3734,
  "\u2581wymienione": 3735,
  "\u2581determined": 3736,
  "RO": 3737,
  "\u2581customs": 3738,
  "\u2581Sea": 3739,
  "\u2581Mac": 3740,
  "\u2581kontakt": 3741,
  "alne": 3742,
  "\u2581murder": 3743,
  "\u2581w\u0142adze": 3744,
  "sz\u0105": 3745,
  "\u2581substances": 3746,
  "\u2581ser": 3747,
  "\u2581stock": 3748,
  "\u2581terminie": 3749,
  "\u2581m\u00f3wi\u0142": 3750,
  "\u2581gives": 3751,
  "ura": 3752,
  "\u2581caused": 3753,
  "\u2581user": 3754,
  "\u2581um\u00f3w": 3755,
  "cz\u0105": 3756,
  "\u2581widz\u0119": 3757,
  "\u2581ADOPT": 3758,
  "\u2581Chi": 3759,
  "\u2581poszczeg\u00f3lnych": 3760,
  "\u2581nowo": 3761,
  "\u2581cz\u0142onkowskiego": 3762,
  "\u2581Each": 3763,
  "\u2581przepisami": 3764,
  "\u2581calling": 3765,
  "qui": 3766,
  "\u2581opened": 3767,
  "65": 3768,
  "tar": 3769,
  "\u2581described": 3770,
  "\u2581Zaraz": 3771,
  "\u2581indicated": 3772,
  "par": 3773,
  "\u2581stopniu": 3774,
  "ful": 3775,
  "\u2581usually": 3776,
  "\u2581Informacje": 3777,
  "\u2581dopiero": 3778,
  "\u2581analizy": 3779,
  "\u2581Decyzja": 3780,
  "\u25812020": 3781,
  "\u2581cell": 3782,
  "\u2581includes": 3783,
  "\u2581commercial": 3784,
  "\u2581consumption": 3785,
  "\u2581Chodzi": 3786,
  "sion": 3787,
  "\u2581wykonania": 3788,
  "bin": 3789,
  "\u2581Chcia\u0142bym": 3790,
  "ada": 3791,
  "bel": 3792,
  "czyn": 3793,
  "ag": 3794,
  "\u2581powiedz": 3795,
  "\u2581solutions": 3796,
  "\u2581regions": 3797,
  "\u258165": 3798,
  "\u2581Hold": 3799,
  "NE": 3800,
  "her": 3801,
  "\u2581Cha": 3802,
  "\u2581\u0142a": 3803,
  "\u2581benefits": 3804,
  "ong": 3805,
  "\u2581\u0142atwo": 3806,
  "66": 3807,
  "\u258144": 3808,
  "skich": 3809,
  "\u017b": 3810,
  "We": 3811,
  "\u2581contribution": 3812,
  "\u2581piece": 3813,
  "\u2581Hu": 3814,
  "ich": 3815,
  "\u2581historii": 3816,
  "\u00f1": 3817,
  "ng": 3818,
  "\u2581element": 3819,
  "\u2581develop": 3820,
  "\u2581podr\u00f3\u017cy": 3821,
  "\u2581Poza": 3822,
  "\u2581kobieta": 3823,
  "wa\u0107": 3824,
  "\u2581plans": 3825,
  "\u2581warunkiem": 3826,
  "\u2581compliance": 3827,
  "\u2581mouth": 3828,
  "\u2581binding": 3829,
  "st\u0119p": 3830,
  "47": 3831,
  "\u2581store": 3832,
  "\u2581Jednak\u017ce": 3833,
  "\u2581reduction": 3834,
  "\u2581accept": 3835,
  "\u2581wi\u0119kszej": 3836,
  "c\u00f3w": 3837,
  "\u2581holding": 3838,
  "\u2581Ci\u0119": 3839,
  "\u2581storage": 3840,
  "2013": 3841,
  "\u2581najlepszego": 3842,
  "2011": 3843,
  "\u2581wymienionych": 3844,
  "\u2581feed": 3845,
  "\u2581difference": 3846,
  "\u2581cia\u0142o": 3847,
  "\u2581village": 3848,
  "\u2581starting": 3849,
  "\u2581units": 3850,
  "roz": 3851,
  "\u2581cz\u0142onkowskim": 3852,
  "\u2581widok": 3853,
  "\u2581prior": 3854,
  "\u2581weekend": 3855,
  "pan": 3856,
  "\u2581menu": 3857,
  "set": 3858,
  "\u2581sufficient": 3859,
  "68": 3860,
  ".12.": 3861,
  "\u2581ma\u0142o": 3862,
  "\u2581widzie\u0107": 3863,
  "Ma": 3864,
  "\u2581obligations": 3865,
  "dra": 3866,
  "\u2581g\u0142\u00f3wnie": 3867,
  "\u2581balance": 3868,
  "\u2581series": 3869,
  "\u2581description": 3870,
  "\u2581potrzebuje": 3871,
  "\u2581opini\u0119": 3872,
  "\u2581wprowadza": 3873,
  "dziel": 3874,
  "\u2581Stan": 3875,
  "\u2581street": 3876,
  "\u2581telewizor": 3877,
  "\u2581welcome": 3878,
  "j\u0105ca": 3879,
  "\u2581sprawozdanie": 3880,
  "\u2581agreed": 3881,
  "\u2581authorisation": 3882,
  "AT": 3883,
  "\u2581Before": 3884,
  "\u2581jednocze\u015bnie": 3885,
  "\u2581compared": 3886,
  "\u2581Joe": 3887,
  "\u2581explain": 3888,
  "\u2581via": 3889,
  "ip": 3890,
  "\u2581swego": 3891,
  "\u258185": 3892,
  "\u2581PRZYJMUJE": 3893,
  "Wy": 3894,
  "\u2581rat": 3895,
  "\u2581samej": 3896,
  "pu": 3897,
  "\u2581overall": 3898,
  "\u2581niczego": 3899,
  "\u2581wymiany": 3900,
  "hu": 3901,
  "rus": 3902,
  "\u2581lie": 3903,
  "\u2581secret": 3904,
  "all": 3905,
  "\u2581Put": 3906,
  "\u2581Brukseli": 3907,
  "\u2581Programme": 3908,
  "\u2581choroby": 3909,
  "\u2581nast\u0119puj\u0105cych": 3910,
  "\u2581agreements": 3911,
  "\u2581Och": 3912,
  "\u2581Ry": 3913,
  "\u2581Everything": 3914,
  "\u2581prawd\u0119": 3915,
  "py": 3916,
  "\u2581lunch": 3917,
  "\u2581internet": 3918,
  "\u2581dzi\u0119kuj\u0119": 3919,
  "\u2581j\u0119zyk\u00f3w": 3920,
  "\u2581Daniel": 3921,
  "\u2581Warsaw": 3922,
  "n\u0105\u0107": 3923,
  "you": 3924,
  "\u2581Striptiz": 3925,
  "\u2581dodatkowe": 3926,
  "\u2581possibility": 3927,
  "\u2581rynek": 3928,
  "\u2581zakres": 3929,
  "\u2581syna": 3930,
  "\u2581przedstawia": 3931,
  "\u2581wzi\u0105\u0107": 3932,
  "\u2581odpowiada": 3933,
  "\u2581beach": 3934,
  "\u2581pass": 3935,
  "\u2581matka": 3936,
  "rad": 3937,
  "56": 3938,
  "\u2581niedo": 3939,
  "TM": 3940,
  "\u2581serce": 3941,
  "\u2581bitch": 3942,
  "\u2581VAT": 3943,
  "\u2581zmienia": 3944,
  "\u2581powrotem": 3945,
  "\u2581tre\u015bci": 3946,
  "\u2581por\u00f3wnaniu": 3947,
  "\u2581zaraz": 3948,
  "\u2581pe": 3949,
  "dia": 3950,
  "\u2581wine": 3951,
  "\u2581evaluation": 3952,
  "\u2581osob\u0119": 3953,
  "\u2581wysokiej": 3954,
  "\u2581uzyska\u0107": 3955,
  "\u2581chcia\u0142em": 3956,
  "\u2581mieszka": 3957,
  "\u2581wi\u0119kszo\u015b\u0107": 3958,
  "\u2581laying": 3959,
  "\u2581Dar": 3960,
  "\u2581forms": 3961,
  "2010": 3962,
  "\u00ae": 3963,
  "\u2581Henry": 3964,
  "\u258100": 3965,
  "nd": 3966,
  "\u2581till": 3967,
  "\u2581voice": 3968,
  "\u2581wczoraj": 3969,
  "\u2581instead": 3970,
  "\u2581fruit": 3971,
  "\u0105c": 3972,
  "\u2581\u017cona": 3973,
  "\u2581foreign": 3974,
  "\u2581momencie": 3975,
  "\u2581Kocham": 3976,
  "\u2581Chapter": 3977,
  "\u2581Mon": 3978,
  "not": 3979,
  "\u2581jeste\u015bcie": 3980,
  "\u2581seven": 3981,
  "\u2581window": 3982,
  "\u2581assets": 3983,
  "\u2581wi\u0105\u017ce": 3984,
  "\u2581wiedzia\u0142": 3985,
  "\u2581manner": 3986,
  "\u2581mia\u0142o": 3987,
  "\u2581anyway": 3988,
  "\u2581dosta\u0107": 3989,
  "\u2581obszar\u00f3w": 3990,
  "\u2581population": 3991,
  "\u2581fix": 3992,
  "\u2581Such": 3993,
  "\u2581dokument": 3994,
  "\u2581Chinese": 3995,
  "\u2581cash": 3996,
  "\u2581raczej": 3997,
  "\u2581click": 3998,
  "\u2581szczeblu": 3999,
  "\u2581notification": 4000,
  "\u2581achieve": 4001,
  "c\u0119": 4002,
  "\u2581jasne": 4003,
  "\u2581ryb": 4004,
  "\u2581operacji": 4005,
  "\u2581zdolno\u015bci": 4006,
  "ven": 4007,
  "\u2581ruchu": 4008,
  "\u2581India": 4009,
  "\u2581facet": 4010,
  "\u2581najlepsze": 4011,
  "\u2581highly": 4012,
  "t\u0119": 4013,
  "\u2581wymogi": 4014,
  "\u2581arrangements": 4015,
  "\u2581poj\u0119cia": 4016,
  "\u2581trip": 4017,
  "\u2581Dan": 4018,
  "\u2581Green": 4019,
  "SA": 4020,
  "\u2581Niniejsz": 4021,
  "\u2581Zbli\u017cenia": 4022,
  "\u2581palcami": 4023,
  "\u2581latest": 4024,
  "\u2581substance": 4025,
  "\u2581Dancing": 4026,
  "\u2581\u017cy\u0107": 4027,
  "eniem": 4028,
  "\u2581extra": 4029,
  "\u2581Price": 4030,
  "\u2581konkurencji": 4031,
  "\u2581Party": 4032,
  "\u2581charakter": 4033,
  "\u2581brzmienie": 4034,
  "\u2581allows": 4035,
  "\u2581szuka": 4036,
  "\u00c4": 4037,
  "\u2581Pair": 4038,
  "\u2581pierwszego": 4039,
  "\u2581Back": 4040,
  "\u2581sustainable": 4041,
  "\u2581customers": 4042,
  "\u2581steel": 4043,
  "\u2581Use": 4044,
  ".11": 4045,
  "\u2581meat": 4046,
  "ap": 4047,
  "\u2581combination": 4048,
  "\u2581multi": 4049,
  "\u2581billion": 4050,
  "\u2581Minister": 4051,
  "\u2581focus": 4052,
  "\u2581brzmi": 4053,
  "\u258153": 4054,
  "\u2581prysznic": 4055,
  "\u2581ilo\u015b\u0107": 4056,
  "\u2581coffee": 4057,
  "year": 4058,
  "\u2581Christmas": 4059,
  "\u2581m\u00f3w": 4060,
  "\u2581London": 4061,
  "lne": 4062,
  "\u2581termin": 4063,
  "\u2581Every": 4064,
  "\u2581praca": 4065,
  "\u2581czynno\u015bci": 4066,
  "nka": 4067,
  "\u2581znajduj\u0105": 4068,
  "\u2581zale\u017cy": 4069,
  "\u2581copy": 4070,
  "\u2581partners": 4071,
  "\u2581Zabawa": 4072,
  "\u2581braku": 4073,
  "\u2581pictures": 4074,
  "ino": 4075,
  "by\u015b": 4076,
  "\u2581Taniec": 4077,
  "\u2581nasza": 4078,
  "\u2581wielko\u015bci": 4079,
  "iz": 4080,
  "\u2581circumstances": 4081,
  "\u258143": 4082,
  "\u2581oparciu": 4083,
  "\u2581catch": 4084,
  "\u2581kontek\u015bcie": 4085,
  "\u2581rule": 4086,
  "\u2581sytuacja": 4087,
  "\u2581zale\u017cno\u015bci": 4088,
  "\u2581base": 4089,
  "\u2581select": 4090,
  "\u2581Captain": 4091,
  "\u2581czym\u015b": 4092,
  "jo": 4093,
  "gad": 4094,
  "\u2581Widzisz": 4095,
  "\u2581spotkanie": 4096,
  "\u2581efficiency": 4097,
  "\u2581mar": 4098,
  "ring": 4099,
  "\u2581znam": 4100,
  "\u2581Odgrywan": 4101,
  "q": 4102,
  "\u2581t\u0142umaczenia": 4103,
  "\u2581operator": 4104,
  "\u2581podr\u00f3\u017c": 4105,
  "\u2581feet": 4106,
  "\u2581electronic": 4107,
  "\u258101": 4108,
  "\u2581Val": 4109,
  "\u2581pierwszej": 4110,
  "\u00a9": 4111,
  "MA": 4112,
  "\u2581FOR": 4113,
  "\u2581shoot": 4114,
  "\u2581wsp\u00f3lnej": 4115,
  "\u2581Dalej": 4116,
  "\u2581satellite": 4117,
  "\u2581Id\u017a": 4118,
  "\u2581klasy": 4119,
  "\u2581Fuck": 4120,
  "\u2581dodatkowych": 4121,
  "\u2581fear": 4122,
  "\u2581Could": 4123,
  "\u2581color": 4124,
  "\u2581Suite": 4125,
  "ping": 4126,
  "off": 4127,
  "sia": 4128,
  "\u2581damn": 4129,
  "\u2581straight": 4130,
  "\u2581s\u0142owo": 4131,
  "\u2581now\u0105": 4132,
  "\u2581Spain": 4133,
  "\u2581bag": 4134,
  "czn\u0105": 4135,
  "\u2581simply": 4136,
  "king": 4137,
  "\u0106": 4138,
  "dal": 4139,
  "\u2581krajowym": 4140,
  "\u2581brat": 4141,
  "\u2581separate": 4142,
  "\u2581oferty": 4143,
  "\u2581dziecka": 4144,
  "\u2581udzia\u0142u": 4145,
  "\u2581cena": 4146,
  "\u2581wystarczy": 4147,
  "ig": 4148,
  "\u2581correct": 4149,
  "\u2581mission": 4150,
  "\u2581nowej": 4151,
  "\u2581Day": 4152,
  "\u2581manufacturer": 4153,
  "\u2581najpierw": 4154,
  "val": 4155,
  "nki": 4156,
  "\u2581COMMISSION": 4157,
  "\u2581surface": 4158,
  "\u2581Czekaj": 4159,
  "eta": 4160,
  "DE": 4161,
  "\u2581throughout": 4162,
  "2014": 4163,
  "\u2581volume": 4164,
  "\u2581lo": 4165,
  "\u2581Alex": 4166,
  "\u2581spend": 4167,
  "\u2581image": 4168,
  "\u2581istotne": 4169,
  "\u2581pool": 4170,
  "usz": 4171,
  "\u2581Pos\u0142uchaj": 4172,
  "\u2581Inter": 4173,
  "czka": 4174,
  "\u2581twarz": 4175,
  "\u2581kurwa": 4176,
  "\u2581poor": 4177,
  "\u2581Authority": 4178,
  "\u2581organ\u00f3w": 4179,
  "\u2581acid": 4180,
  "10.": 4181,
  "\u2581sk\u0142ad": 4182,
  "96": 4183,
  "\u2581looked": 4184,
  "\u2581PO": 4185,
  "\u2581ma\u0142e": 4186,
  "uj\u0105c": 4187,
  "2001": 4188,
  "\u2581finansowego": 4189,
  "\u2581dolar\u00f3w": 4190,
  "\u2581article": 4191,
  "\u2581Lotnisko": 4192,
  "\u2581monitor": 4193,
  "85": 4194,
  "\u258155": 4195,
  "\u2581ono": 4196,
  "\u2581ci\u0105gle": 4197,
  "zu": 4198,
  "\u2581Done": 4199,
  "\u2581target": 4200,
  "\u2581honor": 4201,
  "\u2581green": 4202,
  "pp": 4203,
  "\u2581expect": 4204,
  "\u2581martw": 4205,
  "\u2581pu": 4206,
  "\u2581dam": 4207,
  "\u2581dop\u00f3ki": 4208,
  "\u2581components": 4209,
  "\u2581anty": 4210,
  "\u2581king": 4211,
  "\u2581interests": 4212,
  "\u2581industrial": 4213,
  "\u2581Zamknij": 4214,
  "\u2581church": 4215,
  "\u2581physical": 4216,
  "log": 4217,
  "\u2581items": 4218,
  "\u2581wniosk\u00f3w": 4219,
  "leg": 4220,
  "\u2581zewn\u0105trz": 4221,
  "\u2581Europa": 4222,
  "\u2581milion\u00f3w": 4223,
  "\u2581miesi\u0105ce": 4224,
  "cent": 4225,
  "\u2581Fine": 4226,
  "\u2581recent": 4227,
  "\u2581Lepiej": 4228,
  "\u2581auto": 4229,
  "\u2581Sha": 4230,
  "\u2581Republiki": 4231,
  "\u2581pewna": 4232,
  "\u2581lekarza": 4233,
  "\u2581wymagane": 4234,
  "1)": 4235,
  "\u2581pomaga": 4236,
  "\u2581Cho": 4237,
  "\u2581zakresu": 4238,
  "\u2581email": 4239,
  "2005": 4240,
  "uj\u0105ce": 4241,
  "\u2581r\u0119ce": 4242,
  "\u2581Ed": 4243,
  "\u2581Zoom": 4244,
  "\u2581Church": 4245,
  "\u2581press": 4246,
  "mal": 4247,
  "\u2581tygodniu": 4248,
  "\u2581wi\u0119kszo\u015bci": 4249,
  "ani": 4250,
  "kowe": 4251,
  "\u2581krajowe": 4252,
  "pre": 4253,
  "\u2581tests": 4254,
  "\u2581widzia\u0142em": 4255,
  "\u2581czuj\u0119": 4256,
  "ised": 4257,
  "\u2581sweet": 4258,
  "\u2581osi\u0105gni\u0119cia": 4259,
  "\u2581lack": 4260,
  "\u2581kup": 4261,
  "\u2581procedur": 4262,
  "\u2581installed": 4263,
  "\u2581wej\u015b\u0107": 4264,
  "\u2581shouldn": 4265,
  "\u2581agent": 4266,
  "\u2581ograniczenia": 4267,
  "\u2581pacjenta": 4268,
  "\u2581setting": 4269,
  "64": 4270,
  "dar": 4271,
  "\u2581IP": 4272,
  "\u2581pa\u0144stwami": 4273,
  "=": 4274,
  "\u2581Make": 4275,
  "\u2581importance": 4276,
  "\u2581wynika": 4277,
  ".6.": 4278,
  "\u2581Security": 4279,
  "\u2581Gar": 4280,
  "\u2581pewne": 4281,
  "uj\u0105cych": 4282,
  "\u2581Zjednoczonych": 4283,
  "79": 4284,
  "\u2581zwi\u0119kszenie": 4285,
  "\u2581File": 4286,
  "\u2581century": 4287,
  "aj\u0105": 4288,
  "\u2581Ex": 4289,
  "\u2581wide": 4290,
  "ili": 4291,
  "\u2581relation": 4292,
  "r\u0119": 4293,
  "\u2581link": 4294,
  "\u2581przeznaczone": 4295,
  "\u2581glad": 4296,
  "\u2581note": 4297,
  "\u2581Israel": 4298,
  "\u2581wyb\u00f3r": 4299,
  "niki": 4300,
  "\u2581Jako": 4301,
  "93": 4302,
  "\u2581duties": 4303,
  "\u2581Name": 4304,
  "\u2581wyda": 4305,
  "\u258147": 4306,
  "\u2581Wie": 4307,
  "\u2581White": 4308,
  "}": 4309,
  "\u2581Wsp\u00f3lnot\u0119": 4310,
  "\u2581usage": 4311,
  "\u2581m\u00f3wi\u0105": 4312,
  "What": 4313,
  "\u2581joint": 4314,
  "\u2581Booking": 4315,
  "\u2581While": 4316,
  "\u2581w\u0142os\u00f3w": 4317,
  "\u2581establish": 4318,
  "\u2581lady": 4319,
  "\u2581glass": 4320,
  "\u2581Next": 4321,
  "\u2581features": 4322,
  "\u2581szcz\u0119\u015bcie": 4323,
  "ities": 4324,
  "\u2581Dzienniku": 4325,
  "\u2581opening": 4326,
  "\u2581dream": 4327,
  "NA": 4328,
  "\u2581planu": 4329,
  "\u2581popular": 4330,
  "\u2581registered": 4331,
  "\u2581Mi\u0142o": 4332,
  "nij": 4333,
  "KA": 4334,
  "stro": 4335,
  "\u2581zrobi": 4336,
  "\u2581band": 4337,
  "\u2581devices": 4338,
  "\u2581za\u015b": 4339,
  "\u2581motor": 4340,
  "lt": 4341,
  "\u2581loved": 4342,
  "\u2581Actually": 4343,
  "\u2581sza": 4344,
  "\u2581seeing": 4345,
  "59": 4346,
  "\u2581drugie": 4347,
  "RA": 4348,
  "\u2581nadzoru": 4349,
  "\u2581reduced": 4350,
  "\u2581pal": 4351,
  "\u2581dwu": 4352,
  "92": 4353,
  "stwa": 4354,
  "\u2581infrastructure": 4355,
  "\u2581obs\u0142ugi": 4356,
  "ized": 4357,
  "\u2581Port": 4358,
  "\u2581Urz\u0119dowym": 4359,
  "\u2581rodzaj": 4360,
  "\u2581DNA": 4361,
  "\")": 4362,
  "\u2581kocham": 4363,
  "\u2581sun": 4364,
  "\u2581Mal": 4365,
  "\u2581wymog\u00f3w": 4366,
  "\u2581czasem": 4367,
  "\u2581Robert": 4368,
  "\u2581fresh": 4369,
  "\u2581Convention": 4370,
  "\u2581Ti": 4371,
  "\u2581prowadzi\u0107": 4372,
  "\u2581structure": 4373,
  "\u2581beyond": 4374,
  "\u2581alarm": 4375,
  "\u2581train": 4376,
  "\u2581wewn\u0105trz": 4377,
  "hr": 4378,
  "MI": 4379,
  "\u2581seat": 4380,
  "\u2581anybody": 4381,
  "asz": 4382,
  "\u2581package": 4383,
  "\u2581unique": 4384,
  "\u2581400": 4385,
  "\u2581dear": 4386,
  "\u2581spo": 4387,
  "\u2581worse": 4388,
  "\u2581pracowa\u0107": 4389,
  "\u2581Bill": 4390,
  "\u2581pa\u0144stwie": 4391,
  "\u2581klienta": 4392,
  "\u2581(2": 4393,
  "\u2581dotycz\u0105cy": 4394,
  "\u2581obok": 4395,
  "\u2581Common": 4396,
  "\u2581therapy": 4397,
  "AN": 4398,
  "SP": 4399,
  "gr": 4400,
  "\u2581Joint": 4401,
  "\u2581dangerous": 4402,
  "\u2581COM": 4403,
  "\u2581gospodarki": 4404,
  "staw": 4405,
  "\u2581min": 4406,
  "old": 4407,
  "sp": 4408,
  "\u2581powie": 4409,
  "\u2581Oferujemy": 4410,
  "(2)": 4411,
  "\u2581Bra": 4412,
  "\u2581Wal": 4413,
  "\u2581czeka": 4414,
  "\u2581Ray": 4415,
  "\u2581samochodu": 4416,
  "ros": 4417,
  "\u2581luck": 4418,
  "\u2581Implementing": 4419,
  "\u2581happening": 4420,
  "\u2581accounts": 4421,
  "\u2581Martin": 4422,
  "\u2581comments": 4423,
  "\u25811:": 4424,
  "\u2581Love": 4425,
  "w\u0119": 4426,
  "\u2581School": 4427,
  "\u2581Big": 4428,
  "\u2581wykorzystania": 4429,
  "\u2581zobowi\u0105za\u0144": 4430,
  "\u2581crime": 4431,
  "l\u0119": 4432,
  "OS": 4433,
  "\u2581podobne": 4434,
  "\u2581students": 4435,
  "\u2581Berlin": 4436,
  "\u2581followed": 4437,
  "\u2581behalf": 4438,
  "\u2581Mamo": 4439,
  "\u2581Ju": 4440,
  "rk": 4441,
  "\u2581During": 4442,
  "woj": 4443,
  "\u2581medicine": 4444,
  "\u2581Number": 4445,
  "2012": 4446,
  "\u2581..": 4447,
  "\u2581Log": 4448,
  "dr": 4449,
  "\u2581my\u015bl": 4450,
  "~": 4451,
  "\u2581Orgazm": 4452,
  "\u2581tworzeniu": 4453,
  "\u2581towar": 4454,
  "\u2581authorised": 4455,
  "\u2581puzzle": 4456,
  "wali": 4457,
  "\u2581meteo": 4458,
  "\u2581efforts": 4459,
  "\u2581uda\u0142o": 4460,
  "\u2581sport": 4461,
  "\u2581prawnych": 4462,
  "\u2581Never": 4463,
  "\u2581prezent": 4464,
  "ning": 4465,
  "\u2581techniczne": 4466,
  "\u2581sprz\u0119t": 4467,
  "zol": 4468,
  "bro": 4469,
  "j\u0105cej": 4470,
  "t\u0105": 4471,
  "\u2581scientific": 4472,
  "\u2581Something": 4473,
  "har": 4474,
  "SI": 4475,
  "\u2581Table": 4476,
  "lik": 4477,
  "ser": 4478,
  "tki": 4479,
  "\u2581acts": 4480,
  "\u2581obtained": 4481,
  "\u2581establishment": 4482,
  "\u2581przyk\u0142ady": 4483,
  "ery": 4484,
  "\u2581maj\u0105ce": 4485,
  "\u2581Numer": 4486,
  "\u2581Ver": 4487,
  "\u2581ustanawiaj\u0105ce": 4488,
  "\u2581delivery": 4489,
  "\u2581risks": 4490,
  "\u25811998": 4491,
  "\u2581brain": 4492,
  "\u2581Jeden": 4493,
  "\u2581odleg\u0142o\u015bci": 4494,
  "d\u017c": 4495,
  "\u2581s\u0105dz\u0119": 4496,
  "\u2581Przejd\u017a": 4497,
  "\u2581nazwa": 4498,
  "\u2581Leave": 4499,
  "\u2581meant": 4500,
  "und": 4501,
  "\u2581labour": 4502,
  "\u2581Stay": 4503,
  "\u2581Today": 4504,
  "\u2581regulation": 4505,
  "int": 4506,
  "\u2581Find": 4507,
  "\u2581Mm": 4508,
  "\u2581zdj\u0119cie": 4509,
  "\u2581identified": 4510,
  "\u2581promote": 4511,
  "\u2581scared": 4512,
  "\u2581round": 4513,
  "\u2581evening": 4514,
  "wania": 4515,
  "\u2581By\u0142em": 4516,
  "\u2581Best": 4517,
  "\u2581clinical": 4518,
  "ON": 4519,
  "\u2581podstawowych": 4520,
  "\u2581option": 4521,
  "ara": 4522,
  "\u2581odpowiedzialny": 4523,
  "\u2581zwykle": 4524,
  "\u2581Ab": 4525,
  "\u2581Pu": 4526,
  "2000": 4527,
  "\u2581photo": 4528,
  "\u2581dark": 4529,
  "\u2581Weather": 4530,
  "\u2581Min": 4531,
  "\u2581(1": 4532,
  "\u2581zrobi\u0119": 4533,
  "\u2581100%": 4534,
  "\u2581developing": 4535,
  "\u017ca": 4536,
  "\u2581dance": 4537,
  "\u2581insulin": 4538,
  "\u258141": 4539,
  "\u2581ostatni": 4540,
  "\u2581podmiot\u00f3w": 4541,
  "\u2581przypomina": 4542,
  "dow": 4543,
  "\u2581Act": 4544,
  "\u2581leading": 4545,
  "\u2581spr\u00f3bowa\u0107": 4546,
  "cz\u0119": 4547,
  "\u2581sell": 4548,
  "\u2581ability": 4549,
  "\u2581twoich": 4550,
  "\u2581middle": 4551,
  "\u2581lines": 4552,
  "\u258156": 4553,
  "\u2581artyku\u0142u": 4554,
  "ib": 4555,
  "zja": 4556,
  "ata": 4557,
  "kro": 4558,
  "\u2581krew": 4559,
  "\u2581kraj": 4560,
  "CZ": 4561,
  "\u258195": 4562,
  "\u2581freedom": 4563,
  "\u2581Tego": 4564,
  "CA": 4565,
  "\u2581Wtedy": 4566,
  "\u2581honey": 4567,
  "\u2581przyjmuje": 4568,
  "II": 4569,
  "\u2581attack": 4570,
  "\u2581stosowny": 4571,
  "\u2581Cz": 4572,
  "led": 4573,
  "\u2581programs": 4574,
  "1999": 4575,
  "\u2581funding": 4576,
  "\u2581su": 4577,
  "\u2581certificate": 4578,
  "\u2581sites": 4579,
  "\u2581comply": 4580,
  "\u2581states": 4581,
  "\u2581sold": 4582,
  "\u2581Vi": 4583,
  "\u2581firma": 4584,
  "\u2581otrzyma": 4585,
  "ew": 4586,
  "US": 4587,
  "\u2581moved": 4588,
  "\u2581strength": 4589,
  "\u2581determine": 4590,
  "\u2581performed": 4591,
  "\u2581dotycz\u0105cego": 4592,
  "dyn": 4593,
  "\u2581jednostki": 4594,
  "\u2581forum": 4595,
  "ab": 4596,
  "\u2581pewno\u015bci\u0105": 4597,
  "\u2581w\u0142asne": 4598,
  "\u2581shut": 4599,
  "ud": 4600,
  "\u0142e": 4601,
  "kolwiek": 4602,
  "\u2581View": 4603,
  "\u2581draw": 4604,
  "\u2581papier": 4605,
  "\u2581Har": 4606,
  "lor": 4607,
  "\u2581payments": 4608,
  "\u2581enable": 4609,
  "wol": 4610,
  "\u2581wyra\u017anie": 4611,
  "\u2581tydzie\u0144": 4612,
  "\u2581Currently": 4613,
  "\u2581Financial": 4614,
  "\u258146": 4615,
  "\u2581przyw\u00f3z": 4616,
  "\u2581dziewczyny": 4617,
  "\u2581nowym": 4618,
  "\u2581strona": 4619,
  "\u2581wielki": 4620,
  "isation": 4621,
  "\u2581movement": 4622,
  "\u2581przemys\u0142": 4623,
  "\u2581\u015brodku": 4624,
  "now": 4625,
  "g\u0142": 4626,
  "\u2581phrase": 4627,
  "\u2581Airport": 4628,
  "\u2581contracts": 4629,
  "\u2581daleko": 4630,
  "\u2581kitchen": 4631,
  "\u2581Online": 4632,
  "\u2581financing": 4633,
  "\u2581m\u0105\u017c": 4634,
  "\u2581zmienione": 4635,
  "\u2581statement": 4636,
  "\u2581Last": 4637,
  "\u2581si\u0142y": 4638,
  "\u25811).": 4639,
  "\u2581Fingering": 4640,
  "\u2581fan": 4641,
  "\u2581By\u0142a": 4642,
  "\u2581Parlament": 4643,
  "can": 4644,
  "\u2581by\u0142e\u015b": 4645,
  "\u2581release": 4646,
  "\u2581Che": 4647,
  "\u2581producenta": 4648,
  "\u2581advice": 4649,
  "czyni": 4650,
  "\u2581Over": 4651,
  "\u2581download": 4652,
  "\u2581Us\u0142ugi": 4653,
  "\u2581deep": 4654,
  "\u2581\u015bwiat\u0142a": 4655,
  "\u2581Niemcy": 4656,
  "\u2581zobowi\u0105zania": 4657,
  "\u2581laws": 4658,
  "ole": 4659,
  "\u2581sounds": 4660,
  "\u2581handle": 4661,
  "skim": 4662,
  "\u2581Sto": 4663,
  "\u2581wielo": 4664,
  "fo": 4665,
  "shi": 4666,
  "IP": 4667,
  "\u2581dokument\u00f3w": 4668,
  "\u2581sectors": 4669,
  "\u2581cho\u0107": 4670,
  "\u2581Protocol": 4671,
  "\u2581pie": 4672,
  "\u2581spent": 4673,
  "\u2581join": 4674,
  "\u2581kiedykolwiek": 4675,
  "\u2581web": 4676,
  "\u2581album": 4677,
  "\u2581Private": 4678,
  "\u2581adoption": 4679,
  "\u2581par\u0119": 4680,
  "NI": 4681,
  "\u2581farm": 4682,
  "car": 4683,
  "\u2581szkole": 4684,
  "\u2581rock": 4685,
  "\u2581amazing": 4686,
  "\u2581reading": 4687,
  "\u2581wear": 4688,
  "\u2581element\u00f3w": 4689,
  "\u2581machines": 4690,
  "\u2581da\u0142": 4691,
  "\u2581zabi\u0142": 4692,
  "\u2581log": 4693,
  "\u2581Director": 4694,
  "\u2581Sign": 4695,
  "\u2581umiej\u0119tno\u015bci": 4696,
  "\u2581damage": 4697,
  "\u2581Mag": 4698,
  "ola": 4699,
  "\u2581innovation": 4700,
  "\u2581zamiast": 4701,
  "\u2581weird": 4702,
  "\u2581regular": 4703,
  "\u2581eight": 4704,
  "\u2581by\u0142am": 4705,
  "\u2581summer": 4706,
  "\u2581concluded": 4707,
  "\u2581satelitarne": 4708,
  "\u2581Nowy": 4709,
  "\u2581Date": 4710,
  "alny": 4711,
  "br": 4712,
  "\u2581zn\u00f3w": 4713,
  "\u2581vote": 4714,
  "TY": 4715,
  "\u2581domestic": 4716,
  "\u2581lubi\u0119": 4717,
  "\u2581otherwise": 4718,
  "\u2581itp": 4719,
  "\u2581cy": 4720,
  "\u2581net": 4721,
  "owa\u0142em": 4722,
  "\u2581macie": 4723,
  "\u2581chocia\u017c": 4724,
  "\u2581ca\u0142kiem": 4725,
  "\u258152": 4726,
  "\u2581drop": 4727,
  "\u2581ca": 4728,
  "\u2581negative": 4729,
  "rd": 4730,
  "ens": 4731,
  "\u2581Main": 4732,
  "\u2581przyk\u0142ad\u00f3w": 4733,
  "\u2581pull": 4734,
  "\u2581rozmawia\u0107": 4735,
  "\u2581Austria": 4736,
  "\u2581participation": 4737,
  "\u2581powa\u017cnie": 4738,
  "\u2581Bob": 4739,
  "\u2581distance": 4740,
  "\u2581operators": 4741,
  "\u2581seks": 4742,
  "\u2581hotels": 4743,
  "\u258193": 4744,
  "\u2581exercise": 4745,
  "ward": 4746,
  "\u2581terenie": 4747,
  "\u2581sierpnia": 4748,
  "don": 4749,
  "\u2581Takie": 4750,
  "\u2581Jej": 4751,
  "ple": 4752,
  "42": 4753,
  "$": 4754,
  "\u2581oferujemy": 4755,
  "\u2581student": 4756,
  "\u2581wk\u0142ad": 4757,
  "\u2581transakcji": 4758,
  "\u2581powiesz": 4759,
  "\u2581wall": 4760,
  "\u2581News": 4761,
  "\u2581requires": 4762,
  "ding": 4763,
  "\u2581obj\u0119te": 4764,
  "\u2581przestrzeni": 4765,
  "\u2581Nazwa": 4766,
  "\u2581amounts": 4767,
  "7.": 4768,
  "\u2581placed": 4769,
  "met": 4770,
  "\u2581Wed\u0142ug": 4771,
  "\u258102": 4772,
  "\u2581We\u017a": 4773,
  "rt": 4774,
  "\u015a": 4775,
  "\u2581Three": 4776,
  "\u2581names": 4777,
  "\u2581Jane": 4778,
  "67": 4779,
  "\u2581slow": 4780,
  "\u2581mass": 4781,
  "\u2581europejskiej": 4782,
  "\u201d)": 4783,
  "\u2581beat": 4784,
  "\u2581punkt\u00f3w": 4785,
  "\u2581former": 4786,
  "\u25811000": 4787,
  "ica": 4788,
  "\u2581flag": 4789,
  "\u2581accepted": 4790,
  "dz": 4791,
  "\u2581Code": 4792,
  "owano": 4793,
  "\u2581border": 4794,
  "\u2581entered": 4795,
  "\u2581Ser": 4796,
  "77": 4797,
  "\u00f3d": 4798,
  "PO": 4799,
  "\u2581PL": 4800,
  "\u2581driving": 4801,
  "88": 4802,
  "\u2581dostaw": 4803,
  "\u2581creation": 4804,
  "\u2581community": 4805,
  "\u2581wrote": 4806,
  "\u2581emissions": 4807,
  "kie": 4808,
  "\u2581pairs": 4809,
  "ship": 4810,
  "\u2581metod": 4811,
  "\u2581representative": 4812,
  "\u2581leczenie": 4813,
  "gg": 4814,
  "\u2581Shut": 4815,
  "\u2581statk\u00f3w": 4816,
  "\u2581sprzeda\u017c": 4817,
  "pol": 4818,
  "\u2581medicinal": 4819,
  "nica": 4820,
  "ari": 4821,
  "100": 4822,
  "\u2581tools": 4823,
  "len": 4824,
  "\u2581Book": 4825,
  "\u2581institution": 4826,
  "\u2581wsp\u00f3lne": 4827,
  "0/": 4828,
  "\u2581b\u00f3l": 4829,
  "\u2581bud\u017cetu": 4830,
  "OL": 4831,
  "\u2581najwi\u0119kszego": 4832,
  "\u2581kom": 4833,
  "\u2581Anna": 4834,
  "\u2581Dis": 4835,
  "\u2581statku": 4836,
  "\u258188": 4837,
  "\u2581demand": 4838,
  "\u2581bus": 4839,
  "\u2581pozosta\u0142ych": 4840,
  "\u2581wonderful": 4841,
  "\u2581aim": 4842,
  "\u2581elementy": 4843,
  "\u2581\u017cadnej": 4844,
  "\u2581somewhere": 4845,
  "\u2581znak": 4846,
  "\u2581zamiar": 4847,
  "\u2581independent": 4848,
  "\u2581opportunities": 4849,
  "\u2581dost\u0119pny": 4850,
  "\u2581regulatory": 4851,
  "2008": 4852,
  "\u2581highest": 4853,
  "\u2581\u015bwietnie": 4854,
  "side": 4855,
  "\u2581hey": 4856,
  "\u2581fi": 4857,
  "\u2581publicznej": 4858,
  "\u258149": 4859,
  "\u2581czujesz": 4860,
  "\u2581zna\u0107": 4861,
  "ano": 4862,
  "\u2581pozna": 4863,
  "\u2581120": 4864,
  "\u2581Font": 4865,
  "\u2581internetowej": 4866,
  "tem": 4867,
  "\u2581potrzebne": 4868,
  "\u2581publicznego": 4869,
  "\u2581wyj\u015b\u0107": 4870,
  "\u2581caught": 4871,
  "\u2581extent": 4872,
  "\u2581konto": 4873,
  "3)": 4874,
  "\u2581Trzeba": 4875,
  "\u2581pozosta\u0142e": 4876,
  "\u2581rich": 4877,
  "ena": 4878,
  "\u2581przykro": 4879,
  "ther": 4880,
  "\u2581Dane": 4881,
  "\u2581Wystarczy": 4882,
  "\u2581kolor": 4883,
  "nes": 4884,
  "\u2581drog\u0119": 4885,
  "lep": 4886,
  "\u2581showed": 4887,
  "\u2581named": 4888,
  "\u2581submit": 4889,
  "\u2581hi": 4890,
  "\u2581selected": 4891,
  "\u2581tri": 4892,
  "\u2581presence": 4893,
  "\u2581funkcji": 4894,
  "\u2581quiet": 4895,
  "\u2581uk\u0142adu": 4896,
  "\u2581fault": 4897,
  "\u2581planning": 4898,
  "\u2581zapewnienie": 4899,
  "oli": 4900,
  "\u2581East": 4901,
  "\u2581stara": 4902,
  "\u2581length": 4903,
  "\u2581fat": 4904,
  "\u2581wszystkiego": 4905,
  "\u2581przepraszam": 4906,
  "\u2581po\u015brednictwem": 4907,
  "\u2581pokoje": 4908,
  "\u2581translations": 4909,
  "ST": 4910,
  "\u0301": 4911,
  "\u258172": 4912,
  "\u2581president": 4913,
  "\u2581shop": 4914,
  "69": 4915,
  "\u2581przewodnicz\u0105cy": 4916,
  "\u2581Dobry": 4917,
  "\u2581rodzina": 4918,
  "\u2581wedding": 4919,
  "\u2581distribution": 4920,
  "\u2581problemu": 4921,
  "\u2581limits": 4922,
  "\u2581pojazdu": 4923,
  "\u2581Znajd\u017a": 4924,
  "\u2581sekcji": 4925,
  "\u2581okazji": 4926,
  "\u2581began": 4927,
  "\u2581god": 4928,
  "ciu": 4929,
  "iczne": 4930,
  "\u2581offered": 4931,
  "41": 4932,
  "\u2581natomiast": 4933,
  "\u2581direction": 4934,
  "\u2581Change": 4935,
  "\u2581kupi\u0107": 4936,
  "\u2581evil": 4937,
  "\u2581item": 4938,
  "\u2581symptoms": 4939,
  "\u2581FBI": 4940,
  "\u2581systemy": 4941,
  "\u2581certainly": 4942,
  "\u2581Sal": 4943,
  "\u2581chcia\u0142bym": 4944,
  "\u2581Forum": 4945,
  "\u2581mini": 4946,
  "\u2581vessels": 4947,
  "\u00e4": 4948,
  "\u2581fuel": 4949,
  "ory": 4950,
  "\u2581reporting": 4951,
  "\u00f3wki": 4952,
  "\u2581wnioski": 4953,
  "\u2581gospodarczego": 4954,
  "\u2581nikogo": 4955,
  "\u2581heading": 4956,
  "tak": 4957,
  "\u2581drug": 4958,
  "\u2581pokazuj\u0105c": 4959,
  "\u2581Watch": 4960,
  "72": 4961,
  "\u2581achieved": 4962,
  "\u2581patrz": 4963,
  "gov": 4964,
  "based": 4965,
  "\u2581Sporz\u0105dzono": 4966,
  "\u258151": 4967,
  "\u2581wersja": 4968,
  "\u25812:": 4969,
  "wszy": 4970,
  "raz": 4971,
  "\u2581KOMISJA": 4972,
  "isz": 4973,
  "\u2581przyjaci\u00f3\u0142": 4974,
  "`": 4975,
  "\u2581dozens": 4976,
  "\u2581birth": 4977,
  "\u2581[2],": 4978,
  "\u2581ci\u0105\u017cy": 4979,
  "\u2581Yo": 4980,
  "76": 4981,
  "\u2581pr": 4982,
  "\u2581wonder": 4983,
  "wi\u0105": 4984,
  "\u2581tablets": 4985,
  "\u2581Ameryka": 4986,
  "tes": 4987,
  "\u2581zupe\u0142nie": 4988,
  "jmy": 4989,
  "\u2581equivalent": 4990,
  "\u2581options": 4991,
  "\u2581reached": 4992,
  "\u2581Potem": 4993,
  "\u2581Los": 4994,
  "\u2581standing": 4995,
  "\u2581wybra\u0107": 4996,
  "czki": 4997,
  "\u2581ofiar": 4998,
  "\u2581y": 4999,
  "\u2581rad": 5000,
  "43": 5001,
  "\u2581spe\u0142nia": 5002,
  "\u2581totally": 5003,
  "\u2581u\u017cy\u0107": 5004,
  "\u2581dictionaries": 5005,
  "\u2581steps": 5006,
  "\u2581dziesi\u0105tki": 5007,
  "\u2581medium": 5008,
  "ts": 5009,
  "\u2581unto": 5010,
  "\u2581hang": 5011,
  "\u2581Toilet": 5012,
  "\u2581ride": 5013,
  "Mo": 5014,
  "chu": 5015,
  "\u2581(4)": 5016,
  "\u2581Gdyby": 5017,
  "\u2581g\u00f3r": 5018,
  "\u25811995": 5019,
  "\u2581wprowadzenia": 5020,
  "chi": 5021,
  "\u2581mia\u0142y": 5022,
  "\u2581Out": 5023,
  "\u2581weren": 5024,
  "\u2581military": 5025,
  "\u2581requested": 5026,
  "\u2581sources": 5027,
  "89": 5028,
  "ME": 5029,
  "\u2581konieczno\u015bci": 5030,
  "pod": 5031,
  "\u2581ruch": 5032,
  "\u00e6": 5033,
  "\u25811997": 5034,
  "\u2581ga": 5035,
  "gro": 5036,
  "onej": 5037,
  "\u2581cukru": 5038,
  "\u2581planet": 5039,
  "\u2581Hostel": 5040,
  "sha": 5041,
  "\u2581Under": 5042,
  "\u2581Urz\u0105d": 5043,
  "UN": 5044,
  "\u2581affect": 5045,
  "pas": 5046,
  "miesz": 5047,
  "ff": 5048,
  "\u2581List": 5049,
  "\u2581RE": 5050,
  "-3": 5051,
  "\u2581led": 5052,
  "org": 5053,
  "\u2581complex": 5054,
  "2003": 5055,
  "\u2581\u015b": 5056,
  "\u2581Bur": 5057,
  "\u2581Instant": 5058,
  "\u2581observed": 5059,
  "\u2581my\u015bla\u0142em": 5060,
  "\u2581Company": 5061,
  "\u2581proposals": 5062,
  "owski": 5063,
  "\u2581w\u0142asnych": 5064,
  "\u2581accident": 5065,
  "\u2581prawem": 5066,
  "\u2581Potrzebuj\u0119": 5067,
  "\u2581Stra": 5068,
  "\u2581huge": 5069,
  "\u2581consumer": 5070,
  "\u2581potrafi": 5071,
  "\u2581Opis": 5072,
  "illa": 5073,
  "\u2581screen": 5074,
  "iv": 5075,
  "\u2581wej\u015bcia": 5076,
  "\u2581rady": 5077,
  "\u2581contain": 5078,
  "\u2581Ge": 5079,
  "\u2581stoi": 5080,
  "\u2581lotniczych": 5081,
  "\u2581Hol": 5082,
  "\u2581doubt": 5083,
  "\u2581thousand": 5084,
  "\u2581konsument\u00f3w": 5085,
  "\u2581Nasz": 5086,
  "res": 5087,
  "\u2581sk\u0105d": 5088,
  "\u2581\u017b": 5089,
  "\u2581Lek": 5090,
  "\u258187": 5091,
  "\u2581Russian": 5092,
  "\u2581easily": 5093,
  "\u2581otwiera": 5094,
  "uj\u0105cy": 5095,
  "\u2581track": 5096,
  "g\u0142os": 5097,
  "\u2581Ram": 5098,
  "58": 5099,
  "\u2581metr\u00f3w": 5100,
  "\u2581ball": 5101,
  "\u2581du\u017cy": 5102,
  "\u2581prowadzenia": 5103,
  "\u2581zmieni": 5104,
  "\u2581prison": 5105,
  "\u2581Facebook": 5106,
  "\u2581cz": 5107,
  "\u2581signed": 5108,
  "\u2581kr": 5109,
  "\u2581soul": 5110,
  "\u2581Jim": 5111,
  "ci\u0105g": 5112,
  "vis": 5113,
  "\u2581pr\u00f3by": 5114,
  "\u2581W\u0142a\u015bciwie": 5115,
  "\u2581ustalenia": 5116,
  "MS": 5117,
  "\u2581aware": 5118,
  "\u2581wolno": 5119,
  "MP": 5120,
  "\u2581Remember": 5121,
  "\u2581sprawia": 5122,
  "\u2581wydatk\u00f3w": 5123,
  "\u2581Ya": 5124,
  "r\u00f3": 5125,
  "PS": 5126,
  "\u2581zaczyna": 5127,
  "\u2581Hmm": 5128,
  "\u2581ce": 5129,
  "\u2581Area": 5130,
  "\u2581Roman": 5131,
  "\u2581undertaking": 5132,
  "\u2581s\u0142owniki": 5133,
  "/2": 5134,
  "mor": 5135,
  "gli": 5136,
  "\u2581traffic": 5137,
  "\u2581zabra\u0107": 5138,
  "\u2581Real": 5139,
  "CO": 5140,
  "\u2581implemented": 5141,
  "\u2581dobrym": 5142,
  "\u2581plants": 5143,
  "\u2581w\u0105troby": 5144,
  "\u2581marriage": 5145,
  "\u2581listy": 5146,
  "dle": 5147,
  "\u2581Wybacz": 5148,
  "\u2581begin": 5149,
  "\u2581kryteria": 5150,
  "\u2581instrument\u00f3w": 5151,
  "rza": 5152,
  "\u2581dost\u0119pnych": 5153,
  "\u2581nazwisko": 5154,
  "\u2581rating": 5155,
  "nik\u00f3w": 5156,
  "\u2581jako\u015b\u0107": 5157,
  "\u2581600": 5158,
  "\u2581Aktualnie": 5159,
  "act": 5160,
  "gna": 5161,
  "\u2581250": 5162,
  "\u2581Van": 5163,
  "\u2581sprawdza": 5164,
  "\u2581staje": 5165,
  "\u2581mi\u0142o": 5166,
  "\u2581quick": 5167,
  "ella": 5168,
  "\u2581powers": 5169,
  "\u2581Services": 5170,
  "\u2581Chod\u017amy": 5171,
  "\u2581undertakings": 5172,
  "\u2581Er": 5173,
  "\u2581earlier": 5174,
  "\u2581Roleplay": 5175,
  "\u2581okre\u015blonego": 5176,
  "\u2581Chrystusa": 5177,
  "\u2581]": 5178,
  "\u2581serve": 5179,
  "PA": 5180,
  "\u2581Oil": 5181,
  "\u2581ANNEX": 5182,
  "\u2581powinni": 5183,
  "\u2581Master": 5184,
  "\u2581istniej\u0105": 5185,
  "\u2581Halo": 5186,
  "\u2581actual": 5187,
  "\u2581B\u0119dziesz": 5188,
  "\u2581amendments": 5189,
  "\u2581cz\u0142owiekiem": 5190,
  "\u2581practices": 5191,
  "RI": 5192,
  "54": 5193,
  "\u2581Biznes": 5194,
  "\u2581Although": 5195,
  "\u2581exposure": 5196,
  "\u2581gift": 5197,
  "\u2581science": 5198,
  "\u2581norm": 5199,
  "\u2581potrzebuj\u0119": 5200,
  "\u2581Someone": 5201,
  "\u2581acting": 5202,
  "\u2581cultural": 5203,
  "\u2581ba": 5204,
  "\u2581draft": 5205,
  "\u2581regulations": 5206,
  "\u2581closed": 5207,
  "\u2581heat": 5208,
  "pis": 5209,
  "2002": 5210,
  "\u2581Russia": 5211,
  "ell": 5212,
  "\u2581Musi": 5213,
  "\u2581movie": 5214,
  "mel": 5215,
  "IS": 5216,
  "\u2581operational": 5217,
  "\u2581kawy": 5218,
  "\u2581wersji": 5219,
  "86": 5220,
  "ure": 5221,
  "\u2581contribute": 5222,
  "ero": 5223,
  "\u2581Game": 5224,
  "\u2581REGULATION": 5225,
  "\u2581ourselves": 5226,
  "61": 5227,
  "Help": 5228,
  "\u2581Nick": 5229,
  "-5": 5230,
  "\u2581(\u201e": 5231,
  "\u2581bezp\u0142atny": 5232,
  "\u2581Cel": 5233,
  "\u2581zawarte": 5234,
  "\u2581pozwoli": 5235,
  "{": 5236,
  "vin": 5237,
  "kor": 5238,
  "\u2581produce": 5239,
  "ini": 5240,
  "\u2581consumers": 5241,
  "\u2581rozwi\u0105zanie": 5242,
  "\u2581danej": 5243,
  "\u2581seconds": 5244,
  "\u2581meetings": 5245,
  "\u2581easier": 5246,
  "\u2581properties": 5247,
  "ID": 5248,
  "IA": 5249,
  "\u2581factors": 5250,
  ".3.": 5251,
  "\u2581Once": 5252,
  "\u2581mistake": 5253,
  "-4": 5254,
  "o\u0142": 5255,
  "\u2581dost\u0119pnego": 5256,
  "\u2581protected": 5257,
  "\u2581inicjatywy": 5258,
  "\u2581Fe": 5259,
  "\u2581supporting": 5260,
  "\u2581funduszy": 5261,
  "\u2581producer": 5262,
  "\u2581phase": 5263,
  "\u2581increasing": 5264,
  "\u2581Naj": 5265,
  "\u2581wykaz": 5266,
  "\u2581Syn": 5267,
  "\u2581osi\u0105gn\u0105\u0107": 5268,
  "\u2581flat": 5269,
  "\u2581wind": 5270,
  "78": 5271,
  "\u2581Say": 5272,
  "\u258192": 5273,
  "\u2581match": 5274,
  "\u2581Cu": 5275,
  "ss": 5276,
  "AS": 5277,
  "\u2581rozszerzenie": 5278,
  "\u2581skoro": 5279,
  "czych": 5280,
  "\u2581ensuring": 5281,
  "\u2581regionie": 5282,
  "wan": 5283,
  "\u2581s\u0142ucha": 5284,
  "ney": 5285,
  "\u2581island": 5286,
  "\u2581Dwa": 5287,
  "\u2581Santa": 5288,
  "mi\u0119dzynarodowych": 5289,
  "ld": 5290,
  "ela": 5291,
  "\u2581proper": 5292,
  "TS": 5293,
  "\u2581boss": 5294,
  "\u2581Center": 5295,
  "\u2581do\u015bwiadczenia": 5296,
  "\u2581maintenance": 5297,
  "\u2581prawdopodobnie": 5298,
  "\u2581Nor": 5299,
  "\u2581w\u0142adz": 5300,
  "\u2581polski": 5301,
  "\u2581failure": 5302,
  "\u2581szans\u0119": 5303,
  "57": 5304,
  "\u2581europejskiego": 5305,
  "\u2581Italian": 5306,
  "\u2581rozmawia": 5307,
  "\u2581sprzeda": 5308,
  "\u2581prove": 5309,
  "\u2581artyku\u0142": 5310,
  "alnych": 5311,
  "onym": 5312,
  "\u2581gospodarczej": 5313,
  "\u2581foot": 5314,
  "\u2581sp\u00f3\u0142ki": 5315,
  "00000": 5316,
  "\u2581Spanish": 5317,
  "\u2581Android": 5318,
  "\u2581M\u00f3wi\u0119": 5319,
  "\u2581Kod": 5320,
  "try": 5321,
  "/10": 5322,
  "\u2581ECB": 5323,
  "\u2581inni": 5324,
  "\u2581\u0142azienka": 5325,
  "ev": 5326,
  "\u2581kod": 5327,
  "\u2581gold": 5328,
  "\u2581sk\u00f3ry": 5329,
  "\u2581mimo": 5330,
  "\u2581badaniach": 5331,
  "\u2581Model": 5332,
  "\u2581throw": 5333,
  "\u2581association": 5334,
  "\u2581matki": 5335,
  "\u2581Gry": 5336,
  "\u2581Powiedzia\u0142": 5337,
  "\u2581wypadek": 5338,
  "91": 5339,
  "\u2581Museum": 5340,
  "\u2581Pogoda": 5341,
  "\u2581monitorowania": 5342,
  "ade": 5343,
  "\u2581initial": 5344,
  "\u2581cells": 5345,
  "\u2581availability": 5346,
  "\u258164": 5347,
  "t\u00f3w": 5348,
  "\u2581M\u00f3wi": 5349,
  "dom": 5350,
  "\u2581przewiduje": 5351,
  "ization": 5352,
  "\u2581sitting": 5353,
  "\u2581maintain": 5354,
  "bezpiecz": 5355,
  "\u2581Ke": 5356,
  "\u25811996": 5357,
  "\u2581Holy": 5358,
  "\u010d": 5359,
  "\u2581placebo": 5360,
  "\u2581systemie": 5361,
  "\u258162": 5362,
  "\u2581m\u0119\u017cczyzn": 5363,
  "\u2581przet\u0142umaczone": 5364,
  "\u2581tygodnie": 5365,
  "berg": 5366,
  "\u2581finished": 5367,
  "san": 5368,
  "\u2581pomo\u017ce": 5369,
  "\u2581wymagania": 5370,
  "\u2581treat": 5371,
  "\u2581w\u0142a\u015bciwo\u015bci": 5372,
  "\u2581budynku": 5373,
  "\u2581implement": 5374,
  "2009": 5375,
  "\u2581Nasze": 5376,
  "\u2581wystarczaj\u0105co": 5377,
  "FI": 5378,
  "\u2581lud": 5379,
  "\u2581Ireland": 5380,
  "\u2581Damn": 5381,
  "ala": 5382,
  "\u2581oparte": 5383,
  "\u2581z\u0142e": 5384,
  "Collaboration": 5385,
  "\u0142oby": 5386,
  "\u2581Ms": 5387,
  "\u2581books": 5388,
  "\u2581przecie\u017c": 5389,
  "\u25811/": 5390,
  "\u2581Kor": 5391,
  "Pro": 5392,
  "\u2581lepsze": 5393,
  "\u2581tysi\u0119cy": 5394,
  "\u2581Mama": 5395,
  "\u2581bought": 5396,
  "row": 5397,
  "\u2581Nasza": 5398,
  "porz\u0105d": 5399,
  "\u2581Sun": 5400,
  "\u2581porozumienia": 5401,
  "gon": 5402,
  "\u2581watching": 5403,
  "oma": 5404,
  "\u2581rad\u0119": 5405,
  "\u2581resolution": 5406,
  "sc": 5407,
  "\u2581mad": 5408,
  "\u2581Whatever": 5409,
  "\u2581applicant": 5410,
  "\u2581m\u00f3g\u0142by": 5411,
  "\u2581znaczenia": 5412,
  "\u2581\u015bwiat\u0142o": 5413,
  "\u2581zrobi\u0142e\u015b": 5414,
  "\u2581ma\u0142ych": 5415,
  "ko\u0144cz": 5416,
  "\u2581s\u0142\u00f3w": 5417,
  "\u2581mark": 5418,
  "\u2581Dildo": 5419,
  "\u2581equipped": 5420,
  "\u2581gra\u0107": 5421,
  "\u2581lud\u017ami": 5422,
  "\u2581famous": 5423,
  "\u2581op\u0142at": 5424,
  "\u2581robota": 5425,
  "\u2581technologies": 5426,
  "\u2581uzyskania": 5427,
  "\u2581razu": 5428,
  "\u2581Policy": 5429,
  "\u2581culture": 5430,
  "\u015ble": 5431,
  "low": 5432,
  "\u2581claim": 5433,
  "\u2581Post": 5434,
  "\u2581advantage": 5435,
  "\u2581powiniene\u015b": 5436,
  "\u2581og\u00f3lne": 5437,
  "\u2581podj\u0105\u0107": 5438,
  "Mi": 5439,
  "kowa": 5440,
  "\u2581miejscowo\u015bci": 5441,
  "(1)": 5442,
  "\u2581u\u017cytkownika": 5443,
  "\u2581nowa": 5444,
  "\u2581guests": 5445,
  "\u2581motyw": 5446,
  "lic": 5447,
  "\u2581Unia": 5448,
  "\u2581powiedzia\u0142em": 5449,
  "\u2581occur": 5450,
  "bol": 5451,
  "niejsze": 5452,
  "sku": 5453,
  "\u2581Law": 5454,
  "Wsp\u00f3\u0142praca": 5455,
  "\u2581nobody": 5456,
  "lew": 5457,
  "\u2581Machine": 5458,
  "\u2581prom": 5459,
  "\u2581umo\u017cliwia": 5460,
  "\u2581Apartments": 5461,
  "\u2581Allah": 5462,
  "\u2581finish": 5463,
  "\u2581liczb\u0119": 5464,
  "\u2581excellent": 5465,
  "\u2581smart": 5466,
  "\u2581wy\u0142\u0105czeniem": 5467,
  "PL": 5468,
  "\u2581EBC": 5469,
  "\u2581Total": 5470,
  "\u2581wiedz\u0105": 5471,
  "\u2581Danny": 5472,
  "\u258161": 5473,
  "\u2265": 5474,
  "\u258154": 5475,
  "\u2581proste": 5476,
  "lig": 5477,
  "ryn": 5478,
  "\u2581dodaje": 5479,
  "\u2581pop": 5480,
  "\u2581Mc": 5481,
  "\u2581pani\u0105": 5482,
  "\u2581wzywa": 5483,
  "\u2581stali": 5484,
  "\u2581Start": 5485,
  "rob": 5486,
  "\u2581Available": 5487,
  "\u2581spotkania": 5488,
  "51": 5489,
  "cznych": 5490,
  "\u2581Witam": 5491,
  "\u2581kidding": 5492,
  "\u2581w\u0142a\u015bciwy": 5493,
  "\u2581najlepszych": 5494,
  "kg": 5495,
  "\u2581ne": 5496,
  "\u2581obejmuj\u0105": 5497,
  "\u2581connected": 5498,
  "\u2581zobacz": 5499,
  "but": 5500,
  "\u2581broken": 5501,
  "\u2581Bal": 5502,
  "\u2581ludziom": 5503,
  "\u2581saved": 5504,
  "\u2581zesp\u00f3\u0142": 5505,
  "pad": 5506,
  "\u2581wok\u00f3\u0142": 5507,
  "................": 5508,
  "\u2581Carl": 5509,
  "\u2581character": 5510,
  "\u2581sze\u015b\u0107": 5511,
  "\u2581Light": 5512,
  "\u2581Euratom": 5513,
  "\u2581s\u0142ownika": 5514,
  "\u2581wsp\u00f3lnotowego": 5515,
  "czny": 5516,
  "\u2581remains": 5517,
  "\u2581bro": 5518,
  "\u2581wierz\u0119": 5519,
  "\u2581lying": 5520,
  "\u2581UN": 5521,
  "\u2581zwraca": 5522,
  "\u2581articles": 5523,
  "\u2581Jimmy": 5524,
  "\u2581talked": 5525,
  "\u2581Em": 5526,
  "wia": 5527,
  "\u2581records": 5528,
  "This": 5529,
  "\u2581careful": 5530,
  "\u2581Saturday": 5531,
  "\u2581cen\u0119": 5532,
  "\u2581mobile": 5533,
  "\u2581najlepiej": 5534,
  "\u2581completed": 5535,
  "\u2581tekst": 5536,
  "\u2581Stany": 5537,
  "\u2581kim\u015b": 5538,
  "\u2581concern": 5539,
  "\u2581Porozumienia": 5540,
  "\u2581czterech": 5541,
  "\u2581rise": 5542,
  "\u2581Sub": 5543,
  "\u2581dob\u0119": 5544,
  "Tak": 5545,
  "\u2581Apartment": 5546,
  "\u2581wood": 5547,
  "\u2581boat": 5548,
  "\u2581Power": 5549,
  "\u2581panel": 5550,
  "\u2044": 5551,
  "\u2581mod": 5552,
  "\u2581Witaj": 5553,
  "\u2581wieczorem": 5554,
  "\u2581functions": 5555,
  "\u2581st\u0119\u017cenia": 5556,
  "\u2581realize": 5557,
  "\u258198": 5558,
  "Cause": 5559,
  "\u2581Move": 5560,
  "\u2581ISO": 5561,
  "\u2581\u017ar\u00f3de\u0142": 5562,
  "\u2581nieco": 5563,
  "\u2581lucky": 5564,
  "\u2581trudno\u015bci": 5565,
  "\u2581Chcia\u0142em": 5566,
  "\u258184": 5567,
  "8.": 5568,
  "\u2581symbol": 5569,
  "\u2581ZA\u0141\u0104CZNIK": 5570,
  "\u2581skills": 5571,
  "\u2581sko": 5572,
  "\u2581grze": 5573,
  "\u2581appreciate": 5574,
  "\u2581ustanawiaj\u0105cy": 5575,
  "\u2581Agent": 5576,
  "bil": 5577,
  "\u2581obszaru": 5578,
  "sch": 5579,
  "\u2581cancer": 5580,
  "my\u015bl": 5581,
  "\u2581gwarancji": 5582,
  "\u2581college": 5583,
  "\u2581zaledwie": 5584,
  "\u2581ton": 5585,
  "He": 5586,
  "\u2581characteristics": 5587,
  "iu": 5588,
  "part": 5589,
  "\u2581anywhere": 5590,
  "(4)": 5591,
  "RY": 5592,
  "ika": 5593,
  "\u2581Jehowa": 5594,
  "mit": 5595,
  "\u2581Mia\u0142em": 5596,
  "\u2581programy": 5597,
  "Pom\u00f3\u017c": 5598,
  "\u2581thinks": 5599,
  "including": 5600,
  "\u2581Charles": 5601,
  "\u2581rynk\u00f3w": 5602,
  "\u2581aspects": 5603,
  "\u2581ostatnie": 5604,
  "\u2581j\u0119zyka": 5605,
  "van": 5606,
  "94": 5607,
  "\u2581obszarach": 5608,
  "\u2581ochron\u0119": 5609,
  "\u2581Health": 5610,
  "\u2581bear": 5611,
  "\u2581walki": 5612,
  "\u2581Przecie\u017c": 5613,
  "\u2581wiecz\u00f3r": 5614,
  "\u2581ustala": 5615,
  "\u2581quantities": 5616,
  "\u2581uk\u0142ad": 5617,
  "\u2581przedsi\u0119biorcy": 5618,
  "\u2581wojny": 5619,
  "\u2581families": 5620,
  "\u258166": 5621,
  "\u2581rzeczywi\u015bcie": 5622,
  "emu": 5623,
  "\u2581dyrektywa": 5624,
  "\u2581race": 5625,
  "kur": 5626,
  "oz": 5627,
  "\u2581dotycz\u0105cej": 5628,
  "\u2581stopped": 5629,
  "/5": 5630,
  "lna": 5631,
  "fu": 5632,
  "\u2581Shit": 5633,
  "\u2581pracuje": 5634,
  "\u2581Welcome": 5635,
  "\u2581kart": 5636,
  "\u2581Tym": 5637,
  "\u2581s\u0142u\u017cb": 5638,
  "\u2581przyj\u0119cie": 5639,
  "\u2581majority": 5640,
  "87": 5641,
  "\u2581ko\u015bci": 5642,
  "\u2581Pri": 5643,
  "\u2581customer": 5644,
  "\u2581odniesienia": 5645,
  "\u2581pacjent": 5646,
  "\u25811994": 5647,
  "mm": 5648,
  "\u2581Food": 5649,
  "cen": 5650,
  "\u2581sin": 5651,
  "\u2581neither": 5652,
  "EM": 5653,
  "\u2581poprawy": 5654,
  "ally": 5655,
  "\u2581worried": 5656,
  "dio": 5657,
  "2004": 5658,
  "\u2581zrobi\u0142em": 5659,
  "\u2581wi\u0119ksze": 5660,
  "\u2581extended": 5661,
  "\u2581zde": 5662,
  "\u2581z\u0142y": 5663,
  "\u2581uwierzy\u0107": 5664,
  "\u2581dress": 5665,
  "pi\u0119": 5666,
  "\u2581perform": 5667,
  "\u2581przyj\u0119te": 5668,
  "\u2581zasadzie": 5669,
  "var": 5670,
  "\u2581robi\u0119": 5671,
  "\u2581emergency": 5672,
  "\u2581pl": 5673,
  "\u2581Nadal": 5674,
  "\u2581tool": 5675,
  "\u2581helped": 5676,
  "LA": 5677,
  "\u2581profil": 5678,
  "\u2581Richard": 5679,
  "\u2581severe": 5680,
  "\u2581favour": 5681,
  "\u2581Par": 5682,
  "\u2581do\u015bwiadczenie": 5683,
  "52": 5684,
  "owanego": 5685,
  "\u2581addressed": 5686,
  "\u2581g\u0142ow\u0119": 5687,
  "\u2581Tony": 5688,
  "\u2581broke": 5689,
  "\u2581count": 5690,
  "\u2581kszta\u0142t": 5691,
  "\u2581sad": 5692,
  "zone": 5693,
  "\u2581although": 5694,
  "Ro": 5695,
  "dpowiedzialno\u015bci": 5696,
  "\u2581Tro": 5697,
  "\u2581grant": 5698,
  "\u2581Sprawd\u017a": 5699,
  "\u2581drugs": 5700,
  "\u2581Safety": 5701,
  "\u2581twice": 5702,
  "pt": 5703,
  "CE": 5704,
  "\u2581ring": 5705,
  "\u2581rzeczywisto\u015bci": 5706,
  "\u258194": 5707,
  "\u2581Pen": 5708,
  "duk": 5709,
  "\u2581ni": 5710,
  "\u2581projekty": 5711,
  "gh": 5712,
  "\u2581investments": 5713,
  "\u2581efficient": 5714,
  "\u2581gentlemen": 5715,
  "\u2581zwi\u0119kszenia": 5716,
  "\u2581conditioning": 5717,
  "7,": 5718,
  "\u2581priority": 5719,
  "\u2581obligation": 5720,
  "owali\u015bmy": 5721,
  "\u2581kapita\u0142u": 5722,
  "\u2581daty": 5723,
  "\u2581B\u0119dziemy": 5724,
  "\u2581busy": 5725,
  "\u2581zaleca": 5726,
  "ons": 5727,
  "\u2581mail": 5728,
  "\u2581daj": 5729,
  "\u2581procent": 5730,
  "\u2581Wybierz": 5731,
  "\u2581club": 5732,
  "house": 5733,
  "s\u0142aw": 5734,
  "\u0179": 5735,
  "SE": 5736,
  "\u00bb": 5737,
  "\u2581Dam": 5738,
  "\u2581Chocia\u017c": 5739,
  "\u2581Maria": 5740,
  "\u2581Op": 5741,
  "\u2581concerns": 5742,
  "\u2581infrastruktury": 5743,
  "\u2581Mel": 5744,
  "\u2581integrated": 5745,
  "\u2581wygra": 5746,
  "\u2581Casino": 5747,
  "\u2581virus": 5748,
  "\u25811)": 5749,
  "\u2581object": 5750,
  "\u2581forever": 5751,
  "\u2581Support": 5752,
  "\u2581zrozumie\u0107": 5753,
  "\u2581Nobody": 5754,
  "\u2581Ani": 5755,
  "\u2581bior\u0105c": 5756,
  "\u2581tele": 5757,
  "\u2581lu": 5758,
  "\u2581conference": 5759,
  "\u2581clothes": 5760,
  "\u2581Grand": 5761,
  "\u2581dowiedzie\u0107": 5762,
  "\u2581w\u0142asnej": 5763,
  "\u2581w\u00f3wczas": 5764,
  "\u2581expressed": 5765,
  "\u2581Pra": 5766,
  "\u2581exist": 5767,
  "\u2581przegl\u0105du": 5768,
  "1-": 5769,
  "TE": 5770,
  "\u2581pole": 5771,
  "\u2581Blue": 5772,
  "\u2581d\u0142u\u017cej": 5773,
  "\u2581profile": 5774,
  "ben": 5775,
  "ysz": 5776,
  "\u2581lived": 5777,
  "\u2581brata": 5778,
  "\u2581Year": 5779,
  "\u2581Patrz": 5780,
  "\u2581entirety": 5781,
  "\u2581comment": 5782,
  ".2.": 5783,
  "\u2581rozumieniu": 5784,
  "\u2581tro": 5785,
  "\u2581w\u0142a\u015bciwie": 5786,
  "dem": 5787,
  "\u2581categories": 5788,
  "\u2581views": 5789,
  "stal": 5790,
  "\u2581driver": 5791,
  "back": 5792,
  "\u2581representatives": 5793,
  "Bo": 5794,
  "\u2581instalacji": 5795,
  "\u2581Another": 5796,
  "\u2581resulting": 5797,
  "\u2581s\u0142u\u017cby": 5798,
  "\u2581sekund": 5799,
  "\u2581Dok\u0142adnie": 5800,
  "w\u0105": 5801,
  "\u2581passed": 5802,
  "\u2581Turkey": 5803,
  "...\"": 5804,
  "cyjny": 5805,
  "\u2581recently": 5806,
  "uch": 5807,
  "\u2581hearing": 5808,
  "\u2581przyjaciel": 5809,
  "\u2581digital": 5810,
  "\u2581spo\u0142eczno\u015bci": 5811,
  "\u2581urz\u0105dzenie": 5812,
  "laz": 5813,
  "\u2581dry": 5814,
  "\u2581client": 5815,
  "ci\u0119": 5816,
  "r\u00f3w": 5817,
  "\u2581samych": 5818,
  "\u2581zwr\u00f3ci\u0107": 5819,
  "\u2581exceeding": 5820,
  "\u2581success": 5821,
  "\u2581Grupa": 5822,
  "\u2581spo\u0142ecznych": 5823,
  "\u0118": 5824,
  "\u2581hundred": 5825,
  "\u2581Matt": 5826,
  "\u2581fell": 5827,
  "\u2581prosto": 5828,
  "\u2581trwa": 5829,
  "\u2581prejudice": 5830,
  "tr": 5831,
  "\u2581none": 5832,
  "\u2581umys\u0142": 5833,
  "\u2581ocean": 5834,
  "\u2581rejestru": 5835,
  "dze": 5836,
  "\u2581akcji": 5837,
  "jazd": 5838,
  "\u2581instytucje": 5839,
  "\u2581podej\u015bcie": 5840,
  "\u2581integration": 5841,
  "\u25814,": 5842,
  "\u2581useful": 5843,
  "mul": 5844,
  "\u2581Trzymaj": 5845,
  "\u2581biura": 5846,
  "kt": 5847,
  "AC": 5848,
  "\u2581miles": 5849,
  "\u2581widzia\u0142": 5850,
  "\u2581bezpiecze\u0144stwo": 5851,
  "\u2581growing": 5852,
  "\u2581Report": 5853,
  "\u2581oprogramowania": 5854,
  "\u2581zwi\u0105zek": 5855,
  "\u2581Mother": 5856,
  "\u258199": 5857,
  "\u2581tasks": 5858,
  "des": 5859,
  "lem": 5860,
  "lec": 5861,
  "\u2581przypadk\u00f3w": 5862,
  ".1.": 5863,
  "\u2581preparatu": 5864,
  "\u2581cars": 5865,
  "\u2581drugim": 5866,
  "\u2581initiative": 5867,
  "\u2581stosowanych": 5868,
  "\u2581camp": 5869,
  "53": 5870,
  "\u2581Top": 5871,
  "ture": 5872,
  "\u2581wyst\u0105pienia": 5873,
  "\u2581processes": 5874,
  "\u2581rodzice": 5875,
  "\u2581ju": 5876,
  "\u2581Long": 5877,
  "\u2581wykonawcze": 5878,
  "\u2581rodzaje": 5879,
  "\u2581przyj\u0105\u0107": 5880,
  "\u2581technicznych": 5881,
  "\u2581Tel": 5882,
  "/3": 5883,
  "\u2581favor": 5884,
  "\u2581dow\u00f3d": 5885,
  "\u2581m\u0142odych": 5886,
  "ight": 5887,
  "\u2581approximately": 5888,
  "\u2581zmiana": 5889,
  "\u2581zobaczenia": 5890,
  "\u2581kur": 5891,
  "przy": 5892,
  "\u2581\u017ar\u00f3d\u0142a": 5893,
  "\u2581learning": 5894,
  "\u2581horse": 5895,
  "\u2581pi\u0119ciu": 5896,
  "pen": 5897,
  "\u2581affected": 5898,
  "\u2581dniach": 5899,
  "AM": 5900,
  "\u2581formularz": 5901,
  "\u2581income": 5902,
  "pos": 5903,
  "\u2581appear": 5904,
  "\u2581drawn": 5905,
  "\u2581Hall": 5906,
  "emy": 5907,
  "\u2581situated": 5908,
  "\u2581mia\u0142am": 5909,
  "ect": 5910,
  "iczna": 5911,
  "\u2581proceedings": 5912,
  "ford": 5913,
  "\u2581nazwy": 5914,
  "ative": 5915,
  "wood": 5916,
  "\u2581pami\u0119tam": 5917,
  "\u2581grow": 5918,
  "\u2581van": 5919,
  "chod": 5920,
  "\u2581killing": 5921,
  "\u2581Test": 5922,
  "\u2581plane": 5923,
  "\u2581Market": 5924,
  "\u2581Czyli": 5925,
  "\u2581szkolenia": 5926,
  "LI": 5927,
  "\u2581dialogue": 5928,
  "\u2581kt\u00f3rymi": 5929,
  "\u2581Zna": 5930,
  "field": 5931,
  "\u2581del": 5932,
  "owan\u0105": 5933,
  "\u2581Chce": 5934,
  "\u2581conduct": 5935,
  "Ch": 5936,
  "\u2581podatku": 5937,
  "rz\u0105d": 5938,
  "\u2581opieki": 5939,
  "\u2581nieruchomo\u015bci": 5940,
  "\u2581zak\u0142ad": 5941,
  "\u2581Lee": 5942,
  "\u2581testing": 5943,
  "\u2581podstawowego": 5944,
  "bij": 5945,
  "\u2581Energy": 5946,
  "\u2581Life": 5947,
  "\u2581skuteczno\u015bci": 5948,
  "west": 5949,
  "\u2581PRO": 5950,
  "\u2581wewn\u0119trznego": 5951,
  "\u2581walking": 5952,
  "\u2581kolej": 5953,
  "cka": 5954,
  "ria": 5955,
  "\u2581wprowadzenie": 5956,
  "\u2581memory": 5957,
  "\u2581Pomoc": 5958,
  "bul": 5959,
  "\u2581debate": 5960,
  "\u2581reality": 5961,
  "\u2581gaz": 5962,
  "\u2581helping": 5963,
  "oni": 5964,
  "\u2581spiritual": 5965,
  "\u2581Should": 5966,
  "\u2581gotowa": 5967,
  "\u2581players": 5968,
  "\u2581calculated": 5969,
  "\u2581debt": 5970,
  "\u2581Transport": 5971,
  "\u258159": 5972,
  "\u2581ice": 5973,
  "\u2581informed": 5974,
  "\u2581song": 5975,
  "71": 5976,
  "\u2581suitable": 5977,
  "\u2581zmniejszenie": 5978,
  "\u258158": 5979,
  "w\u00f3r": 5980,
  "\u2581installation": 5981,
  "\u2581entities": 5982,
  "\u2581proud": 5983,
  "\u2581odnosi": 5984,
  "fil": 5985,
  "\u2581karty": 5986,
  "\u2014": 5987,
  "a\u0142a": 5988,
  "cjonal": 5989,
  "\u03bc": 5990,
  "\u2581\u015brodek": 5991,
  "\u2581Mari": 5992,
  "Le": 5993,
  "\u2581Water": 5994,
  "\u2581jakiego": 5995,
  "\u2581secure": 5996,
  "NO": 5997,
  "\u2581zakwaterowanie": 5998,
  "\u2581wideo": 5999,
  "\u2581powinienem": 6000,
  "\u2581demon": 6001,
  "\u2581style": 6002,
  "\u2581(...)": 6003,
  "-10": 6004,
  "\u2581challenges": 6005,
  "\u2581receiving": 6006,
  "\u2581procedur\u0105": 6007,
  "\u2581learned": 6008,
  "\u2581Association": 6009,
  "\u2581fields": 6010,
  "\u2581images": 6011,
  "\u2581znasz": 6012,
  "\u2581mo\u017cecie": 6013,
  "\u2581girlfriend": 6014,
  "\u2581prywatna": 6015,
  "\u2581USD": 6016,
  "\u2581notified": 6017,
  "\u2581z\u0142a": 6018,
  "\u2581prawdziwe": 6019,
  "\u2581Gre": 6020,
  "nek": 6021,
  "\u2581supports": 6022,
  "\u2581pregnant": 6023,
  "De": 6024,
  "\u2581stanowisko": 6025,
  "\u2581wolno\u015bci": 6026,
  "\u2581samochod\u00f3w": 6027,
  "\u2581dyrektyw\u0105": 6028,
  "\u2581gotowy": 6029,
  "\u2581godzin\u0119": 6030,
  "\u2581spotka\u0107": 6031,
  "ular": 6032,
  "\u2581Film": 6033,
  "lny": 6034,
  "\u2581reklam": 6035,
  "dam": 6036,
  "\u25812)": 6037,
  "\u2581Chin": 6038,
  "\u2581doda\u0107": 6039,
  "81": 6040,
  "\u2581d\u00f3\u0142": 6041,
  "\u2581Plus": 6042,
  "\u2581oto": 6043,
  "\u2581Dzieci": 6044,
  "\u2581==": 6045,
  "book": 6046,
  "\u2581supported": 6047,
  "\u2581skutk\u00f3w": 6048,
  "\u2581MA": 6049,
  "\u2581lubi": 6050,
  "\u2581olej": 6051,
  "\u2581Whoa": 6052,
  "\u2581drog\u0105": 6053,
  "\u2581criminal": 6054,
  "\u0144ska": 6055,
  "lip": 6056,
  "3,": 6057,
  "\u2581podlega": 6058,
  "\u2581zawieraj\u0105ce": 6059,
  "\u2581zacz\u0105\u0107": 6060,
  "\u2581scene": 6061,
  "\u2581dziwne": 6062,
  "\u2581uznaje": 6063,
  "\u2581registration": 6064,
  "yn": 6065,
  "\u2581g\u00f3r\u0119": 6066,
  "ped": 6067,
  "\u2581mention": 6068,
  "For": 6069,
  "\u2581Produkt": 6070,
  "\u2581p\u00f3j\u015b\u0107": 6071,
  "\u2581wami": 6072,
  "\u2581Everyone": 6073,
  "\u2581pozwoli\u0107": 6074,
  "\u2581u\u017cyciu": 6075,
  "\u2581cie": 6076,
  "\u2581uzna": 6077,
  "\u2581cart": 6078,
  "\u2581argument": 6079,
  "\u2581Bro": 6080,
  "\u2581Pas": 6081,
  "\u2581Ali": 6082,
  "\u2581banks": 6083,
  "\u2581aktyw\u00f3w": 6084,
  "\u2581ci\u0119\u017cko": 6085,
  "\u2581miesi\u0105c": 6086,
  "\u2581Kan": 6087,
  "\u2581po\u0142o\u017cony": 6088,
  "\u2581Sometimes": 6089,
  "Pa": 6090,
  "\u2581p\u00f3\u017ano": 6091,
  "\u2581my\u015ble\u0107": 6092,
  "budowa": 6093,
  "\u2581imagine": 6094,
  "\u015bwiad": 6095,
  "\u2581breakfast": 6096,
  "\u2581Public": 6097,
  "\u2581\u015bwietle": 6098,
  "\u2581NINIEJSZE": 6099,
  "mont": 6100,
  "\u2581camera": 6101,
  "\u2581mikro": 6102,
  "\u2581officer": 6103,
  "\u2581Download": 6104,
  "\u2581ya": 6105,
  "\u2581wykonywania": 6106,
  "\u2581Te\u017c": 6107,
  "\u2581Znam": 6108,
  "\u2581Many": 6109,
  "\u2581kolejny": 6110,
  "\u2581Pami\u0119tasz": 6111,
  "\u258107": 6112,
  "\u2581Steve": 6113,
  "\u2581powod\u00f3w": 6114,
  "\u2581kor": 6115,
  "\u2581interes": 6116,
  "\u2581introduced": 6117,
  "KO": 6118,
  "pel": 6119,
  "\u2581errors": 6120,
  "\u2581preparation": 6121,
  "\u2581planned": 6122,
  "\u2581Standard": 6123,
  "\u2581Barcelona": 6124,
  "\u2581Kra": 6125,
  "ious": 6126,
  "med": 6127,
  "\u2581corresponding": 6128,
  "dzenie": 6129,
  "\u2581temporary": 6130,
  "\u2581My\u015bla\u0142am": 6131,
  "\u258106": 6132,
  "lina": 6133,
  "\u2581tree": 6134,
  "\u2581jednostek": 6135,
  "4)": 6136,
  "\u2581cat": 6137,
  "\u2581wielkie": 6138,
  "tus": 6139,
  "\u2581Sport": 6140,
  "\u2581Club": 6141,
  "\u2581pla": 6142,
  "\u2581released": 6143,
  "\u2581Without": 6144,
  "\u2581remove": 6145,
  "\u00ad": 6146,
  "NY": 6147,
  "\u2581restaurant": 6148,
  "\u2581eligible": 6149,
  "wyk": 6150,
  "\u2581ROZPORZ\u0104DZENIE": 6151,
  "\u2581By\u0142o": 6152,
  "\u2581dyrektyw\u0119": 6153,
  "\u017c\u0105": 6154,
  "\u2581Radio": 6155,
  "\u2581potrzeba": 6156,
  "\u2581szereg": 6157,
  "\u2581victim": 6158,
  "\u2581employees": 6159,
  "\u258174": 6160,
  "\u2581ulicy": 6161,
  "\u2581guidelines": 6162,
  "\u2581r\u0119k\u0119": 6163,
  "\u2581charges": 6164,
  "\u2581droga": 6165,
  "wa\u017c": 6166,
  "oksy": 6167,
  "top": 6168,
  "\u2581pozwolenia": 6169,
  "\u2581Action": 6170,
  "\u2581rolnych": 6171,
  "\u2581administracyjne": 6172,
  "over": 6173,
  "\u2581Men": 6174,
  "ette": 6175,
  "puszcza": 6176,
  "CI": 6177,
  "\u2581Spa": 6178,
  "dis": 6179,
  "\u2581transmission": 6180,
  "\u2581analiz": 6181,
  "\u2581Dom": 6182,
  "\u2581birthday": 6183,
  "\u2581entity": 6184,
  "tycznych": 6185,
  "\u2581DE": 6186,
  "dol": 6187,
  "\u25813-": 6188,
  "\u0144ski": 6189,
  "\u2581HD": 6190,
  "zor": 6191,
  "\u2581Projekt": 6192,
  "\u2581Wol": 6193,
  "\u2581spread": 6194,
  "\u2581bomb": 6195,
  "ktyw": 6196,
  "\u2581sami": 6197,
  "5%": 6198,
  "\u2581cokolwiek": 6199,
  "\u2581orders": 6200,
  "\u2581comfortable": 6201,
  "\u2581reactions": 6202,
  "pada": 6203,
  "zer": 6204,
  "\u2581ladies": 6205,
  "\u2581\u015bwiadczenia": 6206,
  "\u2581Ameryki": 6207,
  "\u2581Ken": 6208,
  "\u2581vision": 6209,
  "\u2581considers": 6210,
  "fin": 6211,
  "ix": 6212,
  "\u2581por": 6213,
  "\u2581Kate": 6214,
  "\u2581pokaza\u0107": 6215,
  "amy": 6216,
  "\u2581garden": 6217,
  "\u2581keeping": 6218,
  "acyjne": 6219,
  "\u201e": 6220,
  "kin": 6221,
  "\u2581master": 6222,
  "\u2581perhaps": 6223,
  "\u2581empty": 6224,
  "\u2581wiek": 6225,
  "\u2581primary": 6226,
  "\u2581trudne": 6227,
  "\u2581telefonu": 6228,
  "a\u0142em": 6229,
  "mis": 6230,
  "\u2581wskazuje": 6231,
  "cje": 6232,
  "\u2581Im": 6233,
  "\u2581kolejne": 6234,
  "\u2581Also": 6235,
  "well": 6236,
  "cept": 6237,
  "ele": 6238,
  "\u2581definitely": 6239,
  "\u2581Think": 6240,
  "\u2581Ter": 6241,
  "\u2581lay": 6242,
  "\u2581mog\u0142em": 6243,
  "bli": 6244,
  "\u2581micro": 6245,
  "ology": 6246,
  "ville": 6247,
  "\u2581quantity": 6248,
  "\u2581przegl\u0105d": 6249,
  "\u25812-": 6250,
  "\u2581powiedzia\u0142e\u015b": 6251,
  ",000": 6252,
  "\u2581understanding": 6253,
  "\u2581NIE": 6254,
  "\u2581tender": 6255,
  "\u2581confirmed": 6256,
  "\u2581zawarto\u015bci": 6257,
  "\u2581Far": 6258,
  "\u2581Government": 6259,
  "\u2581nauki": 6260,
  "\u2581recovery": 6261,
  "\u2581checks": 6262,
  "\u2581Lisbon": 6263,
  "\u2581hasn": 6264,
  "\u2581career": 6265,
  "\u2581Niekt\u00f3re": 6266,
  "\u2581fighting": 6267,
  "2.": 6268,
  "\u2581Looks": 6269,
  "\u2581\u201d,": 6270,
  "\u2581Doctor": 6271,
  "\u2581Eric": 6272,
  "\u2581arm": 6273,
  "ub": 6274,
  "\u2581notes": 6275,
  "\u2581Tar": 6276,
  "tyka": 6277,
  "\u2581homologacji": 6278,
  "\u2581putting": 6279,
  "\u2581w\u0105tpliwo\u015bci": 6280,
  "\u2581Research": 6281,
  "\u2581controlled": 6282,
  "\u2581przedmiotem": 6283,
  "strze": 6284,
  "m\u00f3wi": 6285,
  "\u2581uniform": 6286,
  "\u2581przysz\u0142o\u015b\u0107": 6287,
  "\u2581Para": 6288,
  "\u2581impossible": 6289,
  "\u2581wys": 6290,
  "\u2581sprawach": 6291,
  "\u2581Justice": 6292,
  "\u2581Trans": 6293,
  "\u2581exceed": 6294,
  "\u2581Island": 6295,
  "\u2581Work": 6296,
  "\u2581odbywa": 6297,
  "tle": 6298,
  "\u2581Skoro": 6299,
  ":30": 6300,
  "\u2581pola": 6301,
  "los": 6302,
  "\u2581Enter": 6303,
  "\u2581dokumenty": 6304,
  "\u2581Quality": 6305,
  "\u2581cheap": 6306,
  "ible": 6307,
  "lnych": 6308,
  "\u2581tworzenia": 6309,
  "\u2581twarzy": 6310,
  "\u2581okoliczno\u015bci": 6311,
  "\u2581bada": 6312,
  "\u2581offering": 6313,
  "500": 6314,
  "\u2581sytuacj\u0119": 6315,
  "board": 6316,
  "\u2581prawne": 6317,
  "\u2581r\u00f3b": 6318,
  "\u2581ID": 6319,
  "\u2581badanie": 6320,
  "\u2581polega": 6321,
  "\u2581stylu": 6322,
  "\u2581path": 6323,
  "\u2581[4]": 6324,
  "\u2581facilitate": 6325,
  "cle": 6326,
  "xi": 6327,
  "\u2581Communication": 6328,
  "\u2581krajowego": 6329,
  "wana": 6330,
  "\u2581terrible": 6331,
  "\u2581wi\u0119ksz\u0105": 6332,
  "\u2581chcia\u0142a": 6333,
  "\u2581signs": 6334,
  "\u2581Furthermore": 6335,
  "\u2581yesterday": 6336,
  "\u2581Sy": 6337,
  "\u2581successful": 6338,
  "\u2581player": 6339,
  "\u2581wyrob\u00f3w": 6340,
  "\u2581alfa": 6341,
  "\u2581zadania": 6342,
  "\u2581klimatu": 6343,
  "\u2581accordingly": 6344,
  "iel": 6345,
  "\u2581stated": 6346,
  "\u2581przekracza": 6347,
  "az": 6348,
  "\u2581influence": 6349,
  "\u2581relations": 6350,
  "\u2581Spokojnie": 6351,
  "\u2581pilot": 6352,
  "\u2581conclusion": 6353,
  "\u258105": 6354,
  "\u2581Ki": 6355,
  "\u2581rezerwacji": 6356,
  "ssa": 6357,
  "\u2581Nad": 6358,
  "\u2581m\u0119\u017cczyzna": 6359,
  "\u2581older": 6360,
  "\u2581tired": 6361,
  "\u2581pleasure": 6362,
  "\u2581des": 6363,
  "\u2581Moreover": 6364,
  "\u2581kr\u00f3l": 6365,
  "\u2581Kolor": 6366,
  "\u2581Nu": 6367,
  "\u2581\u015blub": 6368,
  "\u2581Land": 6369,
  "ky": 6370,
  "robi": 6371,
  "\u2581height": 6372,
  "\u2581mainly": 6373,
  "\u2581zazwyczaj": 6374,
  "SC": 6375,
  "\u2581ofert": 6376,
  "\u2581los": 6377,
  "\u2581Trzy": 6378,
  "\u2581grupa": 6379,
  "\u2581Kr\u00f3l": 6380,
  "ote": 6381,
  "ya": 6382,
  "\u2581transactions": 6383,
  "\u2581electricity": 6384,
  "\u2581krok": 6385,
  "EF": 6386,
  "\u2581coordination": 6387,
  "\u2581wysoko\u015b\u0107": 6388,
  "\u2581Kol": 6389,
  "trze": 6390,
  "ball": 6391,
  "\u2581pozostaje": 6392,
  "IC": 6393,
  "\u2581networks": 6394,
  "\u2581wy\u017cej": 6395,
  "sol": 6396,
  "\u2581obchodzi": 6397,
  "\u2581definition": 6398,
  "\u2581trzyma": 6399,
  "ef": 6400,
  "73": 6401,
  "\u2581rozpozna": 6402,
  "\u2581zada\u0144": 6403,
  "\u2581lek\u00f3w": 6404,
  "\u2581traditional": 6405,
  "r\u00f3\u017c": 6406,
  "\u2581wykorzystanie": 6407,
  "\u2581Mad": 6408,
  "\u2581kap": 6409,
  "\u2581buildings": 6410,
  "\u2581uwzgl\u0119dni\u0107": 6411,
  "\u25813:": 6412,
  "\u2581u\u017cywa\u0107": 6413,
  "\u2581r\u0119cznie": 6414,
  "\u2581wsp\u00f3lnych": 6415,
  "\u2581godz": 6416,
  "\u2581paragraphs": 6417,
  "\u2581rodzin": 6418,
  "(3)": 6419,
  "\u2581zachowa\u0107": 6420,
  "ries": 6421,
  "PR": 6422,
  ".4.": 6423,
  "zji": 6424,
  "\u2581zezwolenia": 6425,
  "\u2581kryzys": 6426,
  "\u2581Cy": 6427,
  "\u2581stanowiska": 6428,
  "\u2581Szczeg\u00f3\u0142y": 6429,
  "\u2581Prawda": 6430,
  "\u2581po\u0142\u0105czenia": 6431,
  "\u2581valid": 6432,
  "\u2581kolei": 6433,
  "\u2581narz\u0119dzi": 6434,
  "\u2581podmioty": 6435,
  "\u2581wake": 6436,
  "\u2581powerful": 6437,
  "praw": 6438,
  "\u2581BE": 6439,
  "\u2581Th": 6440,
  "\u2581kwota": 6441,
  "\u2581percentage": 6442,
  "Ja": 6443,
  "\u2581dobr\u0105": 6444,
  "\u2581Cal": 6445,
  "\u2581mountain": 6446,
  "\u2581platform": 6447,
  "\u2581Eli": 6448,
  "AD": 6449,
  "\u2581carrying": 6450,
  "\u2581effort": 6451,
  "aln\u0105": 6452,
  "ra\u017c": 6453,
  "\u2581invited": 6454,
  "\u2581deliver": 6455,
  "\u2581punkcie": 6456,
  "\u2581alternative": 6457,
  "\u2581adverse": 6458,
  "\u2581Sarah": 6459,
  "\u2581widzisz": 6460,
  "\u2581Dzi\u015b": 6461,
  "czni": 6462,
  "\u2581map\u0119": 6463,
  "\u2581m\u00f3wi\u0142em": 6464,
  "olog": 6465,
  "\u2581sample": 6466,
  "\u2581administracyjny": 6467,
  "\u2581podmiot": 6468,
  "\u2581panowie": 6469,
  "\u2581cards": 6470,
  "\u2581Old": 6471,
  "\u2581originating": 6472,
  "\u2581zabija": 6473,
  "\u2581missed": 6474,
  "free": 6475,
  "\u2581variety": 6476,
  "NIE": 6477,
  "\u2581Parties": 6478,
  "bry": 6479,
  "p\u0142yw": 6480,
  "\u2581(3": 6481,
  "\u2581pami\u0119ci": 6482,
  "\u2581obowi\u0105zk\u00f3w": 6483,
  "\u2581Ask": 6484,
  "\u2581pi\u0119kne": 6485,
  "\u2581fit": 6486,
  "\u2581killer": 6487,
  "\u2581factor": 6488,
  "\u2581Asia": 6489,
  "\u2581uprawnie\u0144": 6490,
  "\u2581chcia\u0142am": 6491,
  "\u2581tata": 6492,
  "\u2581Tim": 6493,
  "\u2581truck": 6494,
  "\u2581ki": 6495,
  "\u2581wearing": 6496,
  "\u2581Muzeum": 6497,
  "\u2581stosowany": 6498,
  "\u2581warm": 6499,
  "\u2581swear": 6500,
  "\u2581fundamental": 6501,
  "\u2581falling": 6502,
  "\u2581Francji": 6503,
  "\u2581Tommy": 6504,
  "\u2581purchase": 6505,
  "\u2581g\u0142\u00f3wnych": 6506,
  "\u2581trudno": 6507,
  "\u2581Microsoft": 6508,
  "\u2581Mil": 6509,
  "\u2581load": 6510,
  "\u00f3wka": 6511,
  "\u2581stole": 6512,
  "\u258104": 6513,
  "\u2581declaration": 6514,
  "\u2581dostarcza": 6515,
  "\u2581okre\u015bli\u0107": 6516,
  "\u2581mal": 6517,
  "tter": 6518,
  "n\u0105\u0142": 6519,
  "\u2581VII": 6520,
  "\u2581osob\u0105": 6521,
  "\u2581proof": 6522,
  "\u2581Bio": 6523,
  "\u2581Cat": 6524,
  "hmm": 6525,
  "\u2581wytycznych": 6526,
  "\u2581historia": 6527,
  "\u2581cech": 6528,
  "\u2581Mia\u0142": 6529,
  "owani": 6530,
  "6,": 6531,
  "\u2581rodzic\u00f3w": 6532,
  "\u2581Shower": 6533,
  "\u2581raport": 6534,
  "\u2581wiedzia\u0142em": 6535,
  "gran": 6536,
  "fen": 6537,
  "\u2581selection": 6538,
  "\u2581dobrej": 6539,
  "\u2581Thus": 6540,
  "\u2581ucz": 6541,
  "\u0142bym": 6542,
  "\u2581Isn": 6543,
  "\u2581zamierza": 6544,
  "\u2581zarz\u0105dzanie": 6545,
  "\u2581ca\u0142a": 6546,
  "\u2581Wiele": 6547,
  "\u2581Ryan": 6548,
  "\u2581refer": 6549,
  "\u2581skutki": 6550,
  "\u2581publiczne": 6551,
  "\u2581Dyrektywa": 6552,
  "\u2581Bye": 6553,
  "\u25811990": 6554,
  "\u2581Troch\u0119": 6555,
  "\u2581info": 6556,
  "\u2581recorded": 6557,
  "\u25812.1": 6558,
  "\u2581challenge": 6559,
  "\u2581translation": 6560,
  "\u2581cop": 6561,
  "\u2581command": 6562,
  "\u2581suszarka": 6563,
  "\u2581mamo": 6564,
  "\u2581dive": 6565,
  "\u2581Human": 6566,
  "\u0105\u017c": 6567,
  "\u2581jaka": 6568,
  "\u2581zajmuje": 6569,
  "lock": 6570,
  "jon": 6571,
  "\u2581polityka": 6572,
  "\u2581funkcjonowaniu": 6573,
  "alnie": 6574,
  "\u2581trial": 6575,
  "\u2581Their": 6576,
  "kowy": 6577,
  "\u2581kul": 6578,
  "\u2581hotele": 6579,
  "PT": 6580,
  "\u2581Trybuna\u0142": 6581,
  "\u2581ch\u0142opak": 6582,
  "\u2581DVD": 6583,
  "\u2581narz\u0119dzia": 6584,
  "Article": 6585,
  "\u2581statistics": 6586,
  "\u2581speaking": 6587,
  "\u2581niepo": 6588,
  "\u25811992": 6589,
  "i\u0142": 6590,
  "\u2581Sex": 6591,
  "\u2581korzysta\u0107": 6592,
  "\u2581prowadzone": 6593,
  "\u2581Pierwszy": 6594,
  "\u2581wynik": 6595,
  "\u2581Taa": 6596,
  "\u2581Vo": 6597,
  "\u2581favorite": 6598,
  "\u2581rol": 6599,
  "\u2581Saint": 6600,
  "\u2581po\u0142\u0105czenie": 6601,
  "\u2581s\u0105d": 6602,
  "\u2581justice": 6603,
  "\u2581st": 6604,
  "\u2581Przewodnicz\u0105cy": 6605,
  "\u2581podstawowe": 6606,
  "ula": 6607,
  "\u2581kraje": 6608,
  "\u2581brothers": 6609,
  "\u2581czyni": 6610,
  "EX": 6611,
  "\u2581Jean": 6612,
  "\u2581Auto": 6613,
  "\u2581zagro\u017cenia": 6614,
  "IL": 6615,
  "ug": 6616,
  "TO": 6617,
  "\u2581tabeli": 6618,
  "\u2581properly": 6619,
  ".\u201d": 6620,
  "\u2581commitment": 6621,
  "\u2581przesz\u0142o\u015bci": 6622,
  "\u2581negotiations": 6623,
  "\u201b": 6624,
  "\u2581jaj": 6625,
  "\u2581NO": 6626,
  "\u2581claims": 6627,
  "bb": 6628,
  "\u2581drugiego": 6629,
  "\u2581raised": 6630,
  "sum": 6631,
  "\u2581roboty": 6632,
  "84": 6633,
  "PC": 6634,
  "\u2581applies": 6635,
  "\u2581ON": 6636,
  "\u258178": 6637,
  "\u2581teach": 6638,
  "\u2581Pozw\u00f3l": 6639,
  "gni": 6640,
  "\u2581Czuj\u0119": 6641,
  "\u2581heavy": 6642,
  "\u2581raise": 6643,
  "\u2581Wyposa\u017cenie": 6644,
  "\u2581m\u0119\u017ca": 6645,
  "\u2581indeed": 6646,
  "\u2581UK": 6647,
  "\u2581niepo\u017c\u0105dane": 6648,
  "\u2581sprawiedliwo\u015bci": 6649,
  "ability": 6650,
  "\u2581przyczyn": 6651,
  "tyczne": 6652,
  "\u2581Harry": 6653,
  "\u2581pochodz\u0105cych": 6654,
  "\u2581styl": 6655,
  "\u2581robi\u0105": 6656,
  "ose": 6657,
  "\u2581jazdy": 6658,
  "\u2581strange": 6659,
  "\u2581Pawe\u0142": 6660,
  "Ba": 6661,
  "\u2581applying": 6662,
  "\u25811.1": 6663,
  "\u258109": 6664,
  "\u2581Pat": 6665,
  "acyjnych": 6666,
  "\u2581refund": 6667,
  "\u2581ojcem": 6668,
  "\u2581Wall": 6669,
  "\u2581konsultacji": 6670,
  "FR": 6671,
  "\u2581Games": 6672,
  "\u2581prace": 6673,
  "\u2581requests": 6674,
  "\u0144skiej": 6675,
  "\u2581tea": 6676,
  "\u2581assume": 6677,
  "\u2581pochodzi": 6678,
  "rate": 6679,
  "zywa": 6680,
  "\u2581scale": 6681,
  "\u2581excuse": 6682,
  "\u2581contained": 6683,
  "cj\u0119": 6684,
  "\u2581spo\u0142ecznej": 6685,
  "\u2581notify": 6686,
  "\u2581rejestr": 6687,
  "\u2581Christians": 6688,
  "formularz": 6689,
  "\u2581Perhaps": 6690,
  "\u2581existence": 6691,
  "\u2581powa\u017cne": 6692,
  "62": 6693,
  "\u2581specjalne": 6694,
  "\u2581Word": 6695,
  "\u2581percent": 6696,
  "\u2581Serwis": 6697,
  "DA": 6698,
  "\u2581Del": 6699,
  "ize": 6700,
  "\u2581Fu": 6701,
  "\u2581rozwi\u0105za\u0144": 6702,
  "\u2581mog\u0142y": 6703,
  "\u2581Widz\u0119": 6704,
  "\u2581chosen": 6705,
  "\u2581dobrego": 6706,
  "\u2581calm": 6707,
  "\u2581zbrodni": 6708,
  "\u2581Climate": 6709,
  "gn": 6710,
  "\u2581policji": 6711,
  "\u2581m\u00f3c": 6712,
  "\u2581u\u017cywa": 6713,
  "\u2581dys": 6714,
  "\u0144skiego": 6715,
  "\u2581Netherlands": 6716,
  "SZ": 6717,
  "\u2581cho": 6718,
  "\u2581ma\u0142a": 6719,
  "awia": 6720,
  "\u2581punkty": 6721,
  "\u2581Hy": 6722,
  "\u2581za\u0142\u0105cznik": 6723,
  "\u2581Scott": 6724,
  "\u2581obtain": 6725,
  "\u2581experts": 6726,
  "\u25811993": 6727,
  "\u2581identify": 6728,
  "\u2581Cap": 6729,
  "\u2581Baby": 6730,
  "\u2581shares": 6731,
  "\u2581korzysta": 6732,
  "nk": 6733,
  "del": 6734,
  "\u2581owoc\u00f3w": 6735,
  "\u2581d\u017awi\u0119k": 6736,
  "\u2581(\"": 6737,
  "ainteresowanych": 6738,
  "\u2581Mimo": 6739,
  "\u2581wynikaj\u0105ce": 6740,
  "\u2581conformity": 6741,
  "\u2581zdolno\u015b\u0107": 6742,
  "\u2581Trybuna\u0142u": 6743,
  "\u2581tytu\u0142": 6744,
  "\u2581nazw\u0119": 6745,
  "\u2581Idziemy": 6746,
  "\u2581zespo\u0142u": 6747,
  "\u2581maj\u0105cy": 6748,
  "\u2581degree": 6749,
  "\u2581Zostaw": 6750,
  "cher": 6751,
  "\u2581manage": 6752,
  "\u2581judgment": 6753,
  "74": 6754,
  "\u258157": 6755,
  "\u2581sam\u0105": 6756,
  "\u2581feels": 6757,
  "bal": 6758,
  "\u2581osobowych": 6759,
  "\u2581powder": 6760,
  "\u2581Szko\u0142a": 6761,
  "\u2581Pomocy": 6762,
  "63": 6763,
  "\u2581sko\u0144czy": 6764,
  "\u2581sports": 6765,
  "\u2581controls": 6766,
  "\u2581decyzj\u0105": 6767,
  "\u2581button": 6768,
  "GA": 6769,
  "\u2581worst": 6770,
  "\u2581kryteri\u00f3w": 6771,
  "\u2581rozumiesz": 6772,
  "\u2581Inn": 6773,
  "\u2581cities": 6774,
  "\u2581ideas": 6775,
  "\u2581handlowych": 6776,
  "\u2581Chrystus": 6777,
  "\u2581WY": 6778,
  "\u2581Nast\u0119pnie": 6779,
  "\u2581S\u0142ucham": 6780,
  "\u2581continued": 6781,
  "uf": 6782,
  "\u2581advance": 6783,
  "\u2581waters": 6784,
  "\u2581(19": 6785,
  "\u2581ideal": 6786,
  "\u2581jak\u0105\u015b": 6787,
  "\u2581cute": 6788,
  "europa": 6789,
  "\u2581r\u00f3wno": 6790,
  "\u2581finansowej": 6791,
  "\u2581removed": 6792,
  "wen": 6793,
  "\u2581duch": 6794,
  "\u2581delivered": 6795,
  "\u2581flow": 6796,
  "\u2581Gor": 6797,
  "czenie": 6798,
  "\u2581czuje": 6799,
  "BS": 6800,
  "\u2581zak\u0142ada": 6801,
  "\u2581conducted": 6802,
  "kowi": 6803,
  "\u2581register": 6804,
  "\u2581niezale\u017cnie": 6805,
  "\u2581audio": 6806,
  "\u2581zrobisz": 6807,
  "\u2581Cor": 6808,
  "\u2581Rose": 6809,
  "\u2581surveillance": 6810,
  "\u2581Canada": 6811,
  "\u2581przyszed\u0142": 6812,
  "\u2581angielski": 6813,
  "\u2581tanie": 6814,
  "\u2581nerek": 6815,
  "ml": 6816,
  "\u2581zwyczaj": 6817,
  "ni\u0119cie": 6818,
  "\u2581Web": 6819,
  "\u258108": 6820,
  "\u2581zawarto\u015b\u0107": 6821,
  "chodz\u0119": 6822,
  "\u2581Wydaje": 6823,
  "\u2581Sie": 6824,
  "\u2581zainteresowane": 6825,
  "\u2581studio": 6826,
  "\u2581Music": 6827,
  "\u2581najlepszy": 6828,
  "\u2581Kat": 6829,
  "\u2581leki": 6830,
  "\u2581morza": 6831,
  "zon": 6832,
  "lly": 6833,
  "\u2581Everybody": 6834,
  "\u2581managed": 6835,
  "dent": 6836,
  "\u2581concentration": 6837,
  "\u2581g\u0142upi": 6838,
  "tive": 6839,
  "\u2581dzie": 6840,
  "\u2581Pozosta\u0142e": 6841,
  "\u2581destroy": 6842,
  "\u2581poli": 6843,
  "\u2581trwania": 6844,
  "\u2581season": 6845,
  "\u2581korzystania": 6846,
  "\u2581gro": 6847,
  "tym": 6848,
  "\u2581zmian\u0119": 6849,
  "\u2581AS": 6850,
  "\u2581odno\u015bnie": 6851,
  "\u2581charakterze": 6852,
  "\u2581Win": 6853,
  "\u2581pokaz": 6854,
  "\u2581gier": 6855,
  "plan": 6856,
  "CC": 6857,
  "\u2581wybiera": 6858,
  "\u2581Ziemi": 6859,
  "Prze": 6860,
  "\u2581Powiedzia\u0142em": 6861,
  "\u2581Quick": 6862,
  "\u2581Thomas": 6863,
  "\u2581podkre\u015bla": 6864,
  "\u2581\u017beby": 6865,
  "\u2581spot": 6866,
  "\u2581fly": 6867,
  "\u2581square": 6868,
  "Jak": 6869,
  "\u2581Sand": 6870,
  "\u2581wiary": 6871,
  "\u2581identification": 6872,
  "\u2581blow": 6873,
  "\u2581rodzin\u0119": 6874,
  "\u2581Still": 6875,
  "\u2581niewy": 6876,
  "\u2581Niestety": 6877,
  "\u2581kana\u0142y": 6878,
  "\u2581Angel": 6879,
  "\u2581ProgID": 6880,
  "\u2581whereas": 6881,
  "ien": 6882,
  "no\u015b": 6883,
  "\u2581bottom": 6884,
  "ile": 6885,
  "\u2581closer": 6886,
  "wcze": 6887,
  "\u2581Mont": 6888,
  "\u2581\u0142\u0105cznie": 6889,
  "IE": 6890,
  "\u2581smell": 6891,
  "\u2581sta\u0142": 6892,
  "\u2581hide": 6893,
  "naj": 6894,
  "\u2581surprise": 6895,
  "\u2581grupie": 6896,
  "IM": 6897,
  "\u2581stick": 6898,
  "lno\u015bci": 6899,
  "\u2581zabezpieczenia": 6900,
  "more": 6901,
  "\u2581lamp": 6902,
  "\u2581Liczba": 6903,
  "\u2581Praw": 6904,
  "ace": 6905,
  "\u2581stawia": 6906,
  "\u2581ustanawia": 6907,
  "\u2581lotnicze": 6908,
  "mas": 6909,
  "pra": 6910,
  "\u2581links": 6911,
  "\u2581Ce": 6912,
  "\u2581pyta\u0144": 6913,
  "\u2581medicines": 6914,
  "\u2581sight": 6915,
  "\u2581materia\u0142": 6916,
  "\u2581Wci\u0105\u017c": 6917,
  "\u2581z\u0142ego": 6918,
  "lam": 6919,
  "\u2581Cameltoe": 6920,
  "\u2581chemical": 6921,
  "aty": 6922,
  "\u2581raw": 6923,
  "\u2581[3]": 6924,
  "\u2581wkr\u00f3tce": 6925,
  "\u2581Schengen": 6926,
  "\u2581Auschwitz": 6927,
  "\u2581cud": 6928,
  "\u2581requirement": 6929,
  "\u2581nieza": 6930,
  "\u2581signal": 6931,
  "\u2581wykorzysta\u0107": 6932,
  "\u2581fund": 6933,
  "\u2581wa\u017c": 6934,
  "\u2581obowi\u0105zek": 6935,
  "\u2581pow": 6936,
  "\u2581injury": 6937,
  "\u2581g\u0142\u00f3wnym": 6938,
  "\u2581destination": 6939,
  "arz": 6940,
  "\u2581ratio": 6941,
  "\u2581miar\u0119": 6942,
  "\u2581adequate": 6943,
  "gor": 6944,
  "\u2581committed": 6945,
  "\u2581strefy": 6946,
  "\u2581wyra\u017ca": 6947,
  "\u2581north": 6948,
  "\u2581serii": 6949,
  "\u2581absolutely": 6950,
  "\u2581block": 6951,
  "\u2581obszar": 6952,
  "\u2581Robi": 6953,
  "\u2581\u017caden": 6954,
  ".5.": 6955,
  "\u2581Zatem": 6956,
  "\u2581wyst\u0119puje": 6957,
  "RS": 6958,
  "\u2581w\u0142asno\u015bci": 6959,
  "screen": 6960,
  "z\u0119": 6961,
  "gl\u0105d": 6962,
  "\u2581Has": 6963,
  "\u2581sztuki": 6964,
  "\u2581Friday": 6965,
  "\u2581consultation": 6966,
  "jak": 6967,
  "\u2581gazu": 6968,
  "\u2581otrzyma\u0107": 6969,
  "\u2581pory": 6970,
  "\u2581atak": 6971,
  "\u2581wywozu": 6972,
  "\u2581Oliwka": 6973,
  "\u2581multiple": 6974,
  "\u2581linked": 6975,
  "\u2581Rozwoju": 6976,
  "\u2581Wniosek": 6977,
  "\u2581organu": 6978,
  "\u2581gatunk\u00f3w": 6979,
  "\u2581naturalne": 6980,
  "bud": 6981,
  "\u2581prepare": 6982,
  "\u2581mono": 6983,
  "\u017cenie": 6984,
  "\u2581indicate": 6985,
  "\u2581netto": 6986,
  "cyt": 6987,
  "\u2581recognition": 6988,
  "\u2581chod\u017a": 6989,
  "\u2581danym": 6990,
  "\u2581sake": 6991,
  "/6": 6992,
  "\u2581Wsp\u00f3lnot": 6993,
  "\u2581ka\u017cde": 6994,
  "\u2581kwot\u0119": 6995,
  "\u2581helps": 6996,
  "\u2581promotion": 6997,
  "rin": 6998,
  "\u2581flights": 6999,
  "\u2581niczym": 7000,
  "tz": 7001,
  "\u2581wcale": 7002,
  "Be": 7003,
  "\u2581rozszerzeniem": 7004,
  "Czy": 7005,
  "\u2581wysy\u0142a": 7006,
  "logi": 7007,
  "\u2581stwierdzono": 7008,
  "\u2581WSP\u00d3LNOT": 7009,
  "bior": 7010,
  "\u25814.2": 7011,
  "\u2581Za\u0142\u0105cznik": 7012,
  "\u2581practical": 7013,
  "\u2581bran\u017cy": 7014,
  "\u2581piersi": 7015,
  "\u2581b\u0119dziecie": 7016,
  "\u2581fill": 7017,
  "\u2581kra": 7018,
  "\u2581nine": 7019,
  "\u2581nuclear": 7020,
  "\u2581Mini": 7021,
  "\u2581id\u017a": 7022,
  "\u2581arrest": 7023,
  "\u2581zrobi\u0142a": 7024,
  "cker": 7025,
  "\u2581bowiem": 7026,
  "\u2581lies": 7027,
  "FF": 7028,
  "rick": 7029,
  "\u2581zone": 7030,
  "\u258163": 7031,
  "\u2581crew": 7032,
  "\u2581ksi\u0105\u017cki": 7033,
  "stru": 7034,
  "\u2581(5)": 7035,
  "\u2581Pl": 7036,
  "\u2581Space": 7037,
  "\u2581mld": 7038,
  "\u2581significantly": 7039,
  "\u2581recommendations": 7040,
  "\u2581dowody": 7041,
  "\u2581zdaniem": 7042,
  "\u2581entitled": 7043,
  "\u2581Croatia": 7044,
  "\u2581sets": 7045,
  "\u2581zasadami": 7046,
  "83": 7047,
  "\u2581Kochanie": 7048,
  "\u2581Uwaga": 7049,
  "\u2581w\u0119gla": 7050,
  "\u2581Try": 7051,
  "-6": 7052,
  "\u2581doros\u0142ych": 7053,
  "\u2581przedstawione": 7054,
  "\u2581sp\u00f3jno\u015bci": 7055,
  "\u2581du\u017cych": 7056,
  "\u2581wasze": 7057,
  "ima": 7058,
  "border": 7059,
  "\u2581pr\u00f3bowa\u0142": 7060,
  "82": 7061,
  "\u2581Him": 7062,
  "\u2581130": 7063,
  "\u2581zapewniaj\u0105": 7064,
  "La": 7065,
  "\u2581compatible": 7066,
  "\u2581statek": 7067,
  "\u2581Powiem": 7068,
  "\u2581bal": 7069,
  "\u2581cz\u0142onkowskimi": 7070,
  "\u2581initiatives": 7071,
  "\u2581kliknij": 7072,
  "\u2581title": 7073,
  "\u2581shared": 7074,
  "\u2581uwa\u017cam": 7075,
  "\u2581zatrzyma": 7076,
  "\u2581leci": 7077,
  "owni": 7078,
  "rywa": 7079,
  "\u2581oh": 7080,
  "\u2581zaj\u0105\u0107": 7081,
  "\u258196": 7082,
  "\u2581becomes": 7083,
  "\u258103": 7084,
  "\u2581Jake": 7085,
  "\u2581invitation": 7086,
  "\u2581okre\u015blony": 7087,
  "\u2581Las": 7088,
  "\u2581willing": 7089,
  "\u2581Jezu": 7090,
  "\u2581Ve": 7091,
  "\u2581pra": 7092,
  "\u2581Bezpiecze\u0144stwa": 7093,
  "sse": 7094,
  "\u2581enterprises": 7095,
  "ick": 7096,
  "\u2581podobnie": 7097,
  "\u2581healthy": 7098,
  "\u2581agents": 7099,
  "\u2581m\u0142odzie\u017cy": 7100,
  "\u2581seek": 7101,
  "\u2581teacher": 7102,
  "\u2581surgery": 7103,
  "\u2581odpowiedniego": 7104,
  "\u2581Media": 7105,
  "tt": 7106,
  "uma": 7107,
  "\u2581g\u0142owie": 7108,
  "\u2581consideration": 7109,
  "\u00e0": 7110,
  "\u2581mi\u0119dzynarodowym": 7111,
  "\u2581businesses": 7112,
  "\u2581poda\u0107": 7113,
  "MO": 7114,
  "\u2581ocen\u0119": 7115,
  "cer": 7116,
  "\u2581jakiego\u015b": 7117,
  "\u2581decyzje": 7118,
  "\u2581przeprowadza": 7119,
  "\u2581osi\u0105ga": 7120,
  "\u2581leczeniu": 7121,
  "\u2581zatrzyma\u0107": 7122,
  "\u2581holiday": 7123,
  "ius": 7124,
  "\u258182": 7125,
  "\u2581tato": 7126,
  "\u0105cych": 7127,
  "\u2581innowacji": 7128,
  "\u2581Fire": 7129,
  "czy\u0107": 7130,
  "\u2581noted": 7131,
  "\u2581schemes": 7132,
  "\u2581Twoim": 7133,
  "\u2581chain": 7134,
  "AP": 7135,
  "odpowiedzialno\u015b\u0107": 7136,
  "\u2581lawyer": 7137,
  "\u2581Uwa\u017caj": 7138,
  "kup": 7139,
  "\u2581boyfriend": 7140,
  "\u2581ustanowione": 7141,
  "poko": 7142,
  "\u2581w\u0142osy": 7143,
  "\u2581warto": 7144,
  "\u2581ad": 7145,
  "\u2581odpad\u00f3w": 7146,
  "\u2581Strony": 7147,
  "\u2581wild": 7148,
  "imy": 7149,
  "eb": 7150,
  "vel": 7151,
  "aj\u0105c": 7152,
  "\u2581arms": 7153,
  "\u2581imp": 7154,
  "\u2581sekret": 7155,
  "9.": 7156,
  "\u2581Commissioner": 7157,
  "\u2581entrepreneurs": 7158,
  "\u2581paying": 7159,
  "cki": 7160,
  "\u2581Additional": 7161,
  "\u2581Switzerland": 7162,
  "\u2581Chris": 7163,
  "\u2581task": 7164,
  "\u2581oprogramowanie": 7165,
  "\u2581badaniu": 7166,
  "\u2581robimy": 7167,
  "\u2581feelings": 7168,
  "\u2581agency": 7169,
  "szcz": 7170,
  "\u2581Witnesses": 7171,
  "\u2581pe\u0142ne": 7172,
  "\u2581\u015brednio": 7173,
  "\u2581heaven": 7174,
  "TI": 7175,
  "\u2581przyj\u015b\u0107": 7176,
  "TP": 7177,
  "\u2581witness": 7178,
  "\u2581despite": 7179,
  "\u2581tickets": 7180,
  "\u2581ka\u017cd\u0105": 7181,
  "\u2581Functioning": 7182,
  "\u2581Portugal": 7183,
  "\u2581usun\u0105\u0107": 7184,
  "\u2581st\u0119\u017cenie": 7185,
  "\u2581Institute": 7186,
  "\u2581taste": 7187,
  "\u258179": 7188,
  "\u2581exporting": 7189,
  "\u2581ziemi\u0119": 7190,
  "\u2581obiekt": 7191,
  "\u2581Wi\u0119kszo\u015b\u0107": 7192,
  "\u2581koszt": 7193,
  "\u2581miesi\u0105ca": 7194,
  "\u2581ONZ": 7195,
  "\u2581extremely": 7196,
  "\u2581kuchni": 7197,
  "\u2581river": 7198,
  "\u2581jecha\u0107": 7199,
  "\u0105ce": 7200,
  "\u2581victims": 7201,
  "\u2581musia\u0142a": 7202,
  "\u2581Copyright": 7203,
  "\u2581spa\u0107": 7204,
  "\u2581pliki": 7205,
  "\u2581battle": 7206,
  "\u2581Kr\u00f3lestwa": 7207,
  "\u2581materia\u0142u": 7208,
  "\u2581Umowy": 7209,
  "\u2581honest": 7210,
  "\u2581zrobimy": 7211,
  "\u2581shower": 7212,
  "y\u0142": 7213,
  "\u2581Amy": 7214,
  "\u2581belongs": 7215,
  "\u2581naprawi\u0107": 7216,
  "\u2581beauty": 7217,
  "\u2581popiera": 7218,
  "pot": 7219,
  "\u2581Agencji": 7220,
  "\u2581trzyma\u0107": 7221,
  "mark": 7222,
  "\u2581innovative": 7223,
  "\u2581wr\u00f3ci": 7224,
  "\u2581discuss": 7225,
  "KI": 7226,
  "\u2581fu": 7227,
  "\u2581Obecnie": 7228,
  "\u2581hereby": 7229,
  "\u2581\u015brodowisko": 7230,
  "\u2581Little": 7231,
  "\u2581li\u015bcie": 7232,
  "\u2581VIII": 7233,
  "owanej": 7234,
  "\u2581przyj\u0119\u0142a": 7235,
  "bi\u0107": 7236,
  "dob": 7237,
  "\u2581MI": 7238,
  "\u2581uwzgl\u0119dnieniem": 7239,
  "\u2581Moon": 7240,
  "\u2581HIV": 7241,
  "SS": 7242,
  "\u2581Szybko": 7243,
  "\u2581szczeg\u00f3lne": 7244,
  "cur": 7245,
  "\u2581Greece": 7246,
  "brze": 7247,
  "\u2581disorders": 7248,
  "\u2581south": 7249,
  "\u2581Ciesz\u0119": 7250,
  "\u2581Rad\u0119": 7251,
  "\u2581list\u0119": 7252,
  "\u2581lotu": 7253,
  "\u2581biggest": 7254,
  "\u2581w\u0142a\u015bciwego": 7255,
  "\u2581clock": 7256,
  "czenia": 7257,
  "\u2581generally": 7258,
  "\u2581c\u00f3rka": 7259,
  "\u2581martwi": 7260,
  "\u2581alcohol": 7261,
  "\u2581umiera": 7262,
  "\u2581ye": 7263,
  "\u2581Bor": 7264,
  "\u2581escape": 7265,
  "\u2581\u0142\u00f3\u017cka": 7266,
  "ware": 7267,
  "\u2581Didn": 7268,
  "\u2581Lecz": 7269,
  "lis": 7270,
  "\u2581rodzaj\u00f3w": 7271,
  "\u2581adjustment": 7272,
  "\u2581Poziom": 7273,
  "\u2581poz": 7274,
  "\u2581Box": 7275,
  "\u2581w\u0142asny": 7276,
  "\u2581Wsp\u00f3lnocie": 7277,
  "\u2581programie": 7278,
  "\u258186": 7279,
  "\u2581pierwsza": 7280,
  "\u2581legislative": 7281,
  "\u2581\u00ab": 7282,
  "\u2581kurs": 7283,
  "-2-": 7284,
  "zki": 7285,
  "\u2581Tre": 7286,
  "\u2581British": 7287,
  "\u2581kultury": 7288,
  "PP": 7289,
  "\u2581Radzie": 7290,
  "\u2581sercu": 7291,
  "\u2581push": 7292,
  "\u2581youth": 7293,
  "liny": 7294,
  "wir": 7295,
  "\u2581apart": 7296,
  "tego": 7297,
  "dz\u0119": 7298,
  "\u2581Kal": 7299,
  "cio": 7300,
  "ista": 7301,
  "\u2581gospodarczych": 7302,
  "mann": 7303,
  "\u2581Sunday": 7304,
  "\u2581pi\u0119kna": 7305,
  "\u2581Regional": 7306,
  "\u2581goal": 7307,
  "\u2581Zr\u00f3b": 7308,
  "\u2581greatest": 7309,
  "\u2581bringing": 7310,
  "\u2581Dia": 7311,
  "\u2581Dyrektor": 7312,
  "ni\u0119cia": 7313,
  "\u2581Clark": 7314,
  "\u2581directive": 7315,
  "\u2581measured": 7316,
  "\u2581Tag": 7317,
  "\u2581Greek": 7318,
  "\u2581kontrol\u0119": 7319,
  "sky": 7320,
  "\u2581ducha": 7321,
  "owanym": 7322,
  "letni": 7323,
  "\u2581religious": 7324,
  "\u2581dyrektywie": 7325,
  "\u2581swe": 7326,
  "\u2581regionu": 7327,
  "\u2581district": 7328,
  "qua": 7329,
  "\u2581Jordan": 7330,
  "\u2581generation": 7331,
  "\u2581dokona\u0107": 7332,
  "\u2581zam\u00f3wienia": 7333,
  "\u2581frequency": 7334,
  "\u2581Taki": 7335,
  "\u2581sprz\u0119tu": 7336,
  "\u2581normy": 7337,
  "\u2581warzyw": 7338,
  "\u2581woda": 7339,
  "\u2581agencji": 7340,
  "\u2581przej\u015b\u0107": 7341,
  "\u2581obiektu": 7342,
  "\u2581pow\u00f3d": 7343,
  "\u2581dar": 7344,
  "\u2581zadanie": 7345,
  "\u258189": 7346,
  "czo": 7347,
  "\u2581examination": 7348,
  "SD": 7349,
  "\u2581By\u0107": 7350,
  "\u2581d\u0142ugo\u015bci": 7351,
  "god": 7352,
  "alnym": 7353,
  "\u2581niemo\u017cliwe": 7354,
  "/02": 7355,
  "\u2581zmniejsza": 7356,
  "\u2581przetwarzania": 7357,
  "\u2581reasonable": 7358,
  "\u2581suppose": 7359,
  "\u2581Korea": 7360,
  "\u2581Sweden": 7361,
  "\u2581uwzgl\u0119dnia": 7362,
  "\u2581consistent": 7363,
  "\u2581Ich": 7364,
  "\u2581istniej\u0105cych": 7365,
  "tory": 7366,
  "\u2581Finally": 7367,
  "ill": 7368,
  "\u2581listening": 7369,
  "\u2581aircraft": 7370,
  "chen": 7371,
  "\u258167": 7372,
  "cel": 7373,
  "\u2581bud\u017cet": 7374,
  "\u2581skali": 7375,
  "\u2581introduction": 7376,
  "\u2581appears": 7377,
  "\u2581Zaczekaj": 7378,
  "\u2581Ber": 7379,
  "\u2581comprehensive": 7380,
  "\u2581Biblii": 7381,
  "\u2581byli\u015bmy": 7382,
  "\u2581failed": 7383,
  "\u2581Gro": 7384,
  "\u2581Road": 7385,
  "\u2581Japan": 7386,
  "\u2581spotyka": 7387,
  "\u2581rod": 7388,
  "TT": 7389,
  "\u2581models": 7390,
  "\u2581objawy": 7391,
  "\u2581seriously": 7392,
  "\u2581gwiazd": 7393,
  "\u2581[5]": 7394,
  "\u2581zacz\u0105\u0142": 7395,
  "\u2581Pla": 7396,
  "\u2581detail": 7397,
  "\u2581Ukraine": 7398,
  "state": 7399,
  "\u2581Simon": 7400,
  "\u2581operate": 7401,
  "eth": 7402,
  "\u2581dealing": 7403,
  "\u2581mieszkanie": 7404,
  "\u2581individuals": 7405,
  "\u2581accessible": 7406,
  "\u2581Control": 7407,
  "\u2581si\u0142": 7408,
  "\u2581Anyway": 7409,
  "niej": 7410,
  "\u2581shape": 7411,
  "\u2581CE": 7412,
  "WA": 7413,
  "\u2581Czasami": 7414,
  "wki": 7415,
  "\u2581Ana": 7416,
  "\u2581otwarte": 7417,
  "\u258150%": 7418,
  "\u2581toaleta": 7419,
  "GO": 7420,
  "\u2581constitute": 7421,
  "\u2581improving": 7422,
  "\u2581connect": 7423,
  "\u2581refundacji": 7424,
  "\u2581skr": 7425,
  "\u2581dzie\u0107mi": 7426,
  "\u2581uprawnienia": 7427,
  "\u2581sky": 7428,
  "\u2581\u015bw": 7429,
  "\u2581Dok\u0105d": 7430,
  "ear": 7431,
  "szych": 7432,
  "\u2581Fo": 7433,
  "\u2581stacji": 7434,
  "\u2581prawdy": 7435,
  "\u2581Huh": 7436,
  "\u2581chroni\u0107": 7437,
  "ations": 7438,
  "\u2581pi\u015bmie": 7439,
  "\u2581neck": 7440,
  "eks": 7441,
  "\u2581M\u015aP": 7442,
  "\u2581vegetables": 7443,
  "\u2581pewnych": 7444,
  "\u2581suffering": 7445,
  "\u2581invite": 7446,
  "COM": 7447,
  "\u258177": 7448,
  "icznych": 7449,
  "\u2581instructions": 7450,
  "\u2581Trade": 7451,
  "ual": 7452,
  "tera": 7453,
  "\u2581solid": 7454,
  "\u2581jedynym": 7455,
  "ast": 7456,
  "\u2581dzia\u0142a\u0107": 7457,
  "\u2581agencies": 7458,
  "izacji": 7459,
  "\u2581finding": 7460,
  "\u2581le\u017cy": 7461,
  "\u2581stone": 7462,
  "hy": 7463,
  "\u2581ty\u0142u": 7464,
  "\u2581experienced": 7465,
  "\u2581promised": 7466,
  "ora": 7467,
  "\u25814.4": 7468,
  "\u2581functioning": 7469,
  "\u0105cy": 7470,
  "\u2581absence": 7471,
  "gie": 7472,
  "\u2581r\u00f3\u017c": 7473,
  "\u2581musieli": 7474,
  "\u2581Brian": 7475,
  "\u2581przyzna": 7476,
  "au": 7477,
  "\u2581enforcement": 7478,
  "\u2581Ka\u017cda": 7479,
  "\u2581duration": 7480,
  "\u2581Description": 7481,
  "\u2581truly": 7482,
  "\u2581Stock": 7483,
  "cus": 7484,
  "\u2581army": 7485,
  "\u2581Abraham": 7486,
  "put": 7487,
  "kre": 7488,
  "\u2581buddy": 7489,
  "\u2581weapons": 7490,
  "\u258176": 7491,
  "\u2581trzeciego": 7492,
  "\u2581du\u017c\u0105": 7493,
  "\u2581Luke": 7494,
  "\u2581pierwszych": 7495,
  "oid": 7496,
  "\u2581Powinni\u015bmy": 7497,
  "\u2581leaves": 7498,
  "\u2581differences": 7499,
  "\u2581mess": 7500,
  "\u2581intervention": 7501,
  "\u2581napisa\u0142": 7502,
  "\u2581ur": 7503,
  "\u2581pokazuje": 7504,
  "\u2581Zanim": 7505,
  "\u2581pen": 7506,
  "\u2581wida\u0107": 7507,
  "right": 7508,
  "\u2581stwierdza": 7509,
  "ologia": 7510,
  "\u2581capable": 7511,
  "\u2581sektor": 7512,
  "\u2581pieces": 7513,
  "ciel": 7514,
  "\u2581nu": 7515,
  "\u2581M\u00f3wi\u0142em": 7516,
  "\u2581encourage": 7517,
  "ety": 7518,
  "\u2581wyja\u015bnia": 7519,
  "\u2581combined": 7520,
  "\u2581Nast\u0119pny": 7521,
  "rr": 7522,
  "\u2581Anything": 7523,
  "\u2581licence": 7524,
  "\u2581Rock": 7525,
  "\u2581dowod\u00f3w": 7526,
  "\u2581participate": 7527,
  "\u2581swych": 7528,
  "BA": 7529,
  "CS": 7530,
  "\u2581profit": 7531,
  "\u2581c\u00f3\u017c": 7532,
  "\u2581Dzi": 7533,
  "rys": 7534,
  "\u2581dy": 7535,
  "ments": 7536,
  "r\u00f3b": 7537,
  "PE": 7538,
  "\u00d3W": 7539,
  "\u2581powtarza": 7540,
  "\u2581siostra": 7541,
  "\u2581zach\u0119ca": 7542,
  "\u2581Phil": 7543,
  "ral": 7544,
  "\u2581rozwi": 7545,
  "\u2581udziela": 7546,
  "\u2581iron": 7547,
  "\u2581wychodzi": 7548,
  "\u2581wysoko": 7549,
  "\u2581ster": 7550,
  "Od": 7551,
  "\u2581okre\u015blono": 7552,
  "\u2581klimatyzacja": 7553,
  "\u2581Station": 7554,
  "\u2581committee": 7555,
  "\u2581mocno": 7556,
  "\u2581procesie": 7557,
  "\u2581swej": 7558,
  "\u2581czeka\u0107": 7559,
  "\u2581Dzie": 7560,
  "\u2581letters": 7561,
  "\u258168": 7562,
  "\u2581Design": 7563,
  "\u2581Lady": 7564,
  "\u2581Beach": 7565,
  "\u2581Widzia\u0142em": 7566,
  "\u2581Pokoju": 7567,
  "\u2581route": 7568,
  "\u2581Podoba": 7569,
  "\u2581manually": 7570,
  "\u2581diab\u0142a": 7571,
  "\u2581czyta": 7572,
  "ENT": 7573,
  "\u258191": 7574,
  "\u2581Rome": 7575,
  "\u2581fellow": 7576,
  "\u258171": 7577,
  "\u2581zakaz": 7578,
  "\u2581restructuring": 7579,
  "szej": 7580,
  "\u2581server": 7581,
  "\u2581sklep": 7582,
  "\u2581naukowych": 7583,
  "\u2581Both": 7584,
  "\u2581znalaz\u0142": 7585,
  "\u2581ME": 7586,
  "TC": 7587,
  "\u2581Jews": 7588,
  "\u2581Spraw": 7589,
  "\u2581okre\u015blonym": 7590,
  "\u2581owe": 7591,
  "nale": 7592,
  "\u2581pobytu": 7593,
  "\u00f3\u0142": 7594,
  "\u2581Photo": 7595,
  "\u0e00": 7596,
  "\u2581europejskim": 7597,
  "ls": 7598,
  "\u2581histori\u0119": 7599,
  "lf": 7600,
  "\u2581recognised": 7601,
  "\u2581Place": 7602,
  "\u2581River": 7603,
  "\u2581odpowiedni": 7604,
  "ust": 7605,
  "\u2581EUROPEJSKICH": 7606,
  "czone": 7607,
  "tyki": 7608,
  "\u2581recommend": 7609,
  "\u2581Following": 7610,
  "\u2581zakup": 7611,
  "\u2581zwierz\u0119ta": 7612,
  "\u2581rozmiar": 7613,
  "\u2581autobus": 7614,
  "\u2581efekt": 7615,
  "\u2581wyraz": 7616,
  "\u2581tough": 7617,
  "pe\u0142ni": 7618,
  "\u2581mechanism": 7619,
  "\u2581tj": 7620,
  "glo": 7621,
  "\u2581czasami": 7622,
  "\u2581ogrzewanie": 7623,
  "\u2581wykorzystuje": 7624,
  "ken": 7625,
  "\u2581Sar": 7626,
  "\u2581szpitala": 7627,
  "\u2581opinie": 7628,
  "\u2581znajdziesz": 7629,
  "\u2581GPS": 7630,
  "\u2581MO": 7631,
  "\u2581powoduje": 7632,
  "\u2581opr\u00f3cz": 7633,
  "\u2581pogada\u0107": 7634,
  "\u2581answers": 7635,
  "\u2581wsp\u00f3\u0142prac\u0119": 7636,
  "\u2581Lot": 7637,
  "sis": 7638,
  "\u2581zdrowie": 7639,
  "\u2581COMMUNITIES": 7640,
  "\u2581Queen": 7641,
  "\u2581funkcjonowania": 7642,
  "\u2581ramy": 7643,
  "\u2581samolot": 7644,
  "nictwo": 7645,
  "\u2581Bri": 7646,
  "\u2581owner": 7647,
  "\u2581Mat": 7648,
  "\u2581w\u0142a\u015bciwych": 7649,
  "\u2581pewnego": 7650,
  "\u2581potrzebujesz": 7651,
  "kung": 7652,
  "-12": 7653,
  "\u2581dates": 7654,
  "\u2581Roger": 7655,
  "\u2581po\u0142ow\u00f3w": 7656,
  "\u2581PM": 7657,
  "\u2581CYP": 7658,
  "\u2581Celem": 7659,
  "\u2581session": 7660,
  "\u2581bla": 7661,
  "\u2581loves": 7662,
  "\u2581Bo\u017cego": 7663,
  "\u0142\u00f3w": 7664,
  "\u258169": 7665,
  "\u2581stability": 7666,
  "\u2581paliwa": 7667,
  "\u2581ustalone": 7668,
  "\u2581zero": 7669,
  "gasse": 7670,
  "\u2581mleka": 7671,
  "\u2581Rachel": 7672,
  "\u2581Macie": 7673,
  "kan": 7674,
  "\u2581czasach": 7675,
  "\u2581kiss": 7676,
  "\u2581update": 7677,
  "\u2581Europejskim": 7678,
  "\u2581bezpieczne": 7679,
  "\u2581800": 7680,
  "\u2581humans": 7681,
  "\u2581Nowe": 7682,
  "\u2581tekstu": 7683,
  "\u2581Satellite": 7684,
  "dic": 7685,
  "\u2581spoke": 7686,
  "\u2581Pol": 7687,
  "\u2581Zdj\u0119cia": 7688,
  "cj\u0105": 7689,
  "hand": 7690,
  "\u2581Kr": 7691,
  "\u2581forgot": 7692,
  "d\u0142u\u017c": 7693,
  "elle": 7694,
  "\u2581Funduszu": 7695,
  "\u2581przyjdzie": 7696,
  "\u2581afternoon": 7697,
  "\u2581SO": 7698,
  "\u2581periods": 7699,
  "\u2581wsp\u00f3lnotowych": 7700,
  "\u2581Kurwa": 7701,
  "related": 7702,
  "\u2581rezerw": 7703,
  "\u2581chi": 7704,
  "\u2581booking": 7705,
  "\u2581host": 7706,
  "\u2581stopnia": 7707,
  "\u2581pomimo": 7708,
  "bis": 7709,
  "\u2581dying": 7710,
  "\u2581Poczekaj": 7711,
  "\u2581Rad": 7712,
  "\u2581weapon": 7713,
  "\u2581Global": 7714,
  "\u2581inn\u0105": 7715,
  "\u2581onto": 7716,
  "\u2581idziesz": 7717,
  "kryj": 7718,
  "\u2581Dzisiaj": 7719,
  "\u2581competitive": 7720,
  "\u2581Jackson": 7721,
  "\u2581opini\u0105": 7722,
  "owiec": 7723,
  "\u2581tablet": 7724,
  "ban": 7725,
  "\u258173": 7726,
  "\u2581trzecie": 7727,
  "\u2581zachowania": 7728,
  "\u2581\u017cy": 7729,
  "Me": 7730,
  "\u2581fe": 7731,
  "\u2581basen": 7732,
  "miar": 7733,
  "\u258181": 7734,
  "4%": 7735,
  "wor": 7736,
  "\u2581wszystkimi": 7737,
  "PI": 7738,
  "law": 7739,
  "\u2581SP": 7740,
  "dor": 7741,
  "\u2581zbli\u017ca": 7742,
  "cego": 7743,
  "\u2581Network": 7744,
  "\u2581teaching": 7745,
  "cznej": 7746,
  "\u2581consist": 7747,
  "\u2581Razem": 7748,
  "\u2581komentarz": 7749,
  "\u2581Indian": 7750,
  "\u2581oral": 7751,
  "\u2581contents": 7752,
  "\u2581Walter": 7753,
  "\u2581rozdzia\u0142": 7754,
  "rzenie": 7755,
  "\u2581Najpierw": 7756,
  "\u2581combat": 7757,
  "gle": 7758,
  "\u2581install": 7759,
  "dat": 7760,
  "\u2581my\u015bl\u0105": 7761,
  "rat": 7762,
  "\u2581du\u017cej": 7763,
  "\u2581cha": 7764,
  "\u2581Shi": 7765,
  "\u2581background": 7766,
  "\u2581w\u0142asnego": 7767,
  "\u2581Gold": 7768,
  "Ta": 7769,
  "\u2581szuka\u0107": 7770,
  "\u2581Ca\u0142y": 7771,
  "tis": 7772,
  "\u2581W\u0142ochy": 7773,
  "\u2581uciec": 7774,
  "\u2581zam\u00f3wie\u0144": 7775,
  "\u2581vessel": 7776,
  "\u2581wiatr": 7777,
  "\u2581twierdzi": 7778,
  "\u2581110": 7779,
  "ury": 7780,
  "aktywny": 7781,
  "bieg": 7782,
  "\u2581Pie": 7783,
  "\u2581m\u00f3zgu": 7784,
  "\u2581odej\u015b\u0107": 7785,
  "\u2581airlines": 7786,
  "\u2581output": 7787,
  "\u2581125": 7788,
  "\u2581verification": 7789,
  "\u2581stworzy\u0142": 7790,
  "\u2581tourist": 7791,
  "\u2581lekarzem": 7792,
  "\u2581zr\u00f3wnowa\u017conego": 7793,
  "://": 7794,
  "\u2581checked": 7795,
  "\u2581award": 7796,
  "\u2581brand": 7797,
  "\u2581Med": 7798,
  "\u2581instance": 7799,
  "\u2581ofiary": 7800,
  "\u0142o\u015b\u0107": 7801,
  "\u2581drunk": 7802,
  "\u2581angry": 7803,
  "\u2581gang": 7804,
  "\u2581protest": 7805,
  "\u2581consequences": 7806,
  "\u2581trend": 7807,
  "itis": 7808,
  "\u2581walczy\u0107": 7809,
  "\u2581integracji": 7810,
  "yt": 7811,
  "\u2581revenue": 7812,
  "\u2581ul": 7813,
  "\u2581updated": 7814,
  "\u2581strengthen": 7815,
  "work": 7816,
  "\u2581Framework": 7817,
  "\u2581Anti": 7818,
  "\u2581Happy": 7819,
  "\u2581przeznaczonych": 7820,
  "\u2581przeznaczenia": 7821,
  "\u2581Hostels": 7822,
  "\u2581dzi": 7823,
  "\u2581kluczowe": 7824,
  "IF": 7825,
  "\u2581entirely": 7826,
  "\u2581judge": 7827,
  "\u2581szef": 7828,
  "\u2581ponadto": 7829,
  "glu": 7830,
  "\u2581fo": 7831,
  "\u2581Single": 7832,
  "\u2581Spr\u00f3buj": 7833,
  "\u2581zawieraj\u0105": 7834,
  "\u2581maszyny": 7835,
  "cha": 7836,
  "\u2581Cz\u0119sto": 7837,
  "\u2581joy": 7838,
  "Mar": 7839,
  "\u2581dzieckiem": 7840,
  "\u2581\u00b0": 7841,
  "\u2581(10": 7842,
  "\u2581eating": 7843,
  "\u2581Zgadza": 7844,
  "that": 7845,
  "\u2581situations": 7846,
  "\u00fd": 7847,
  "\u2581Kur": 7848,
  "\u2581k\u0142opoty": 7849,
  "\u2581komputerze": 7850,
  "\u2581pack": 7851,
  "kowych": 7852,
  "d\u0119": 7853,
  "\u2581doktor": 7854,
  "\u2581Sol": 7855,
  "\u2581okre\u015blonej": 7856,
  "\u2581grounds": 7857,
  "TH": 7858,
  "\u2581Sama": 7859,
  "\u2581nagle": 7860,
  "arka": 7861,
  "\u2581flowers": 7862,
  "town": 7863,
  "\u2581Mo\u017cliwe": 7864,
  "gl": 7865,
  "\u2581przedstawiciel": 7866,
  "\u2581score": 7867,
  "\u2581advanced": 7868,
  "strzyk": 7869,
  "\u2581returned": 7870,
  "\u2581Ger": 7871,
  "bur": 7872,
  "mes": 7873,
  "\u2581Western": 7874,
  "non": 7875,
  "ka\u017c": 7876,
  "nor": 7877,
  "\u2581Ol": 7878,
  "OP": 7879,
  "\u25814:": 7880,
  "\u2581Id\u0119": 7881,
  "wierz": 7882,
  "iego": 7883,
  "\u2581wi\u0119zienia": 7884,
  "\u2581Trust": 7885,
  "\u2581FAQ": 7886,
  "aria": 7887,
  "\u2581szkody": 7888,
  "mod": 7889,
  "\u2581registry": 7890,
  "\u2581Note": 7891,
  "\u2581Louis": 7892,
  "\u2581respectively": 7893,
  "nar": 7894,
  "\u2581180": 7895,
  "atory": 7896,
  "\u2581Char": 7897,
  "\u2581Comp": 7898,
  "\u2581potrzebujemy": 7899,
  "32/": 7900,
  "\u2581grand": 7901,
  "\u2581Send": 7902,
  "\u2581Mountains": 7903,
  "nal": 7904,
  "\u2581w\u0142asn\u0105": 7905,
  "\u2581sum": 7906,
  "\u2581assess": 7907,
  "\u2581Besides": 7908,
  "\u2581leader": 7909,
  "rio": 7910,
  "\u2581niemal": 7911,
  "\u2581effectively": 7912,
  "\u2581umar\u0142": 7913,
  "\u2581Pobierz": 7914,
  "alna": 7915,
  "wid": 7916,
  "\u2581covering": 7917,
  "\u2581delay": 7918,
  "\u2581okre\u015blenie": 7919,
  "\u2581zdj\u0119\u0107": 7920,
  "\u2581plany": 7921,
  "\u2581Apartament": 7922,
  "\u2581mieszka\u0144c\u00f3w": 7923,
  "\u2581selling": 7924,
  "\u2581promoting": 7925,
  "\u2581by\u0142by": 7926,
  "\u0143": 7927,
  "\u2581component": 7928,
  "\u2581kwas": 7929,
  "\u2581drinking": 7930,
  "\u2581concept": 7931,
  "\u2581default": 7932,
  "\u2581provisional": 7933,
  "hen": 7934,
  "\u2581wprowadzi\u0107": 7935,
  "\u2581szcz\u0119\u015bliwy": 7936,
  "\u2581marry": 7937,
  "\u00e7": 7938,
  "\u2581wykorzystywane": 7939,
  "\u2581mate": 7940,
  "\u2581marked": 7941,
  "\u2581noise": 7942,
  "sil": 7943,
  "\u2581zawartych": 7944,
  "\u2581zostali": 7945,
  "\u2581inspection": 7946,
  "\u2581wsp\u00f3lnie": 7947,
  "\u2581Romania": 7948,
  "\u2581female": 7949,
  "\u2581wska\u017anik": 7950,
  "\u2581rare": 7951,
  "\u2581suggest": 7952,
  "\u2581hidden": 7953,
  "\u2581Flash": 7954,
  "\u2581\u017cony": 7955,
  "\u2581dziewczyn\u0119": 7956,
  "\u2581mieli\u015bmy": 7957,
  "CR": 7958,
  "plik": 7959,
  "\u2581accompanied": 7960,
  "sur": 7961,
  "\u2581wsz\u0119dzie": 7962,
  "\u0142o\u017cy\u0107": 7963,
  "\u2581Dobranoc": 7964,
  "\u2581Sit": 7965,
  "And": 7966,
  "EUR": 7967,
  "\u2581administered": 7968,
  "\u2581bazie": 7969,
  "rabia": 7970,
  "lia": 7971,
  "gada": 7972,
  "\u2581konieczno\u015b\u0107": 7973,
  "\u2581sprawozdaniu": 7974,
  "\u2581aktywno\u015bci": 7975,
  "r\u00f3d": 7976,
  "\u2581Kevin": 7977,
  "\u2581nacisk": 7978,
  "ni\u0119": 7979,
  "\u2581(\u2018": 7980,
  "\u2581zmieniaj\u0105ce": 7981,
  "eg": 7982,
  "owa\u0142y": 7983,
  "\u2581w\u0142asnym": 7984,
  "\u2581Chicago": 7985,
  "\u2581protein": 7986,
  "\u2581transparency": 7987,
  "\u2581komu": 7988,
  "\u2581ka\u017cda": 7989,
  "\u2581danger": 7990,
  "\u2581Pozna": 7991,
  "\u2581Bath": 7992,
  "\u2581Iron": 7993,
  "\u2581klucz": 7994,
  "\u2581Twojego": 7995,
  "\u2581tells": 7996,
  "\u2581Us": 7997,
  "fl": 7998,
  "izing": 7999,
  "bus": 8000,
  "\u2581flu": 8001,
  "\u2581trading": 8002,
  "\u2581Bel": 8003,
  "\u2581ubrania": 8004,
  "licz": 8005,
  "\u2581ko\u0142o": 8006,
  "\u2581jako\u015b": 8007,
  "\u2581participants": 8008,
  "\u2581http": 8009,
  "\u2581Player": 8010,
  "\u2581liver": 8011,
  "\u2581priorities": 8012,
  "rek": 8013,
  "\u2581rejestracji": 8014,
  "key": 8015,
  "\u2581unikn\u0105\u0107": 8016,
  "\u2581classes": 8017,
  "\u2581B\u0105d\u017a": 8018,
  "cej": 8019,
  "\u2581mi\u0119sa": 8020,
  "\u2581ostatniej": 8021,
  "\u2581160": 8022,
  "\u2581ustaw": 8023,
  "\u2581taught": 8024,
  "\u2581estimated": 8025,
  "\u2581dotycz\u0105": 8026,
  "\u2581rozwi\u0105za\u0107": 8027,
  "\u2581talent": 8028,
  "\u2581liked": 8029,
  "kre\u015bl": 8030,
  "\u2581perfectly": 8031,
  "\u2581pozw\u00f3l": 8032,
  "dza": 8033,
  "\u2581dalsze": 8034,
  "Con": 8035,
  "bla": 8036,
  "\u2581improved": 8037,
  "\u2581ekspert\u00f3w": 8038,
  "\u2581opiera": 8039,
  "\u2581Press": 8040,
  "\u2581clients": 8041,
  "\u2581ocenia": 8042,
  "\u2581apartments": 8043,
  "\u2581okre\u015blonymi": 8044,
  "\u2581osi": 8045,
  "\u2581interes\u00f3w": 8046,
  "\u2581kolejnych": 8047,
  "\u2581g\u0142osu": 8048,
  "\u2581chcecie": 8049,
  "\u2581rozwija": 8050,
  "\u2581harm": 8051,
  "\u2581prawdziwy": 8052,
  "RC": 8053,
  "\u2581forces": 8054,
  "\u2581\u017con\u0119": 8055,
  "tyczny": 8056,
  "\u2581komputera": 8057,
  "\u2581stworzy\u0107": 8058,
  "\u2581personelu": 8059,
  "\u2581Egypt": 8060,
  "\u2581m\u00f3zg": 8061,
  "\u2581bottle": 8062,
  "\u2581declared": 8063,
  "\u25816,": 8064,
  "\u2581guest": 8065,
  "\u2581p\u0142ci": 8066,
  "ML": 8067,
  "\u2581changing": 8068,
  "\u2581niesamowite": 8069,
  "\u2581walut": 8070,
  "\u2581nearly": 8071,
  "\u2581cops": 8072,
  "\u2581wiadomo": 8073,
  "\u2581z\u0142o": 8074,
  "\u2581wprowadzania": 8075,
  "cina": 8076,
  "kh": 8077,
  "uri": 8078,
  "\u2581Jorku": 8079,
  "\u2581EFTA": 8080,
  "\u2581lovely": 8081,
  "\u2581Mie": 8082,
  "\u2581Wyniki": 8083,
  "\u2581Gr": 8084,
  "\u2581strzela": 8085,
  "le\u017c": 8086,
  "\u2581guide": 8087,
  "\u2581Girl": 8088,
  "\u2581prayer": 8089,
  "\u2581soft": 8090,
  "\u2581Podobnie": 8091,
  "\u2581stanowi\u0107": 8092,
  "trz": 8093,
  "\u2581wyj\u015bcia": 8094,
  "\u2581mi\u0119\u015bni": 8095,
  "\u2581permanent": 8096,
  "\u2581banku": 8097,
  "\u2581wr\u00f3ci\u0142": 8098,
  "\u2581spo\u0142ecznego": 8099,
  "\u2581og\u00f3lnego": 8100,
  "\u2581automatically": 8101,
  "\u2581drug\u0105": 8102,
  "\u2581ko\u0144czy": 8103,
  "\u2581\u015bci\u015ble": 8104,
  "DC": 8105,
  "\u2581lokalnych": 8106,
  "\u2581autor": 8107,
  "\u2581formy": 8108,
  "\u2581obie": 8109,
  "ists": 8110,
  "\u2581ancient": 8111,
  "\u2581ogl\u0105da": 8112,
  "\u2581represent": 8113,
  "\u2581ocena": 8114,
  "\u2581Products": 8115,
  "\u2581facts": 8116,
  "\u2581associations": 8117,
  "\u2581fee": 8118,
  "\u2581display": 8119,
  "\u2581turns": 8120,
  "\u2581uczucie": 8121,
  "pens": 8122,
  "\u2581przedstawiony": 8123,
  "light": 8124,
  "dz\u0105": 8125,
  "\u2581Jewish": 8126,
  "\u2581bigger": 8127,
  "\u2581Eddie": 8128,
  "\u2581dogs": 8129,
  "pad\u0142": 8130,
  "\u2581Krak\u00f3w": 8131,
  "\u2581carbon": 8132,
  "\u2581sporo": 8133,
  "\u2581wyst\u0119powania": 8134,
  "\u2581quarter": 8135,
  "\u2581politycznych": 8136,
  "\u2581Region": 8137,
  "\u203a": 8138,
  "\u2581introduce": 8139,
  "\u2581dude": 8140,
  "mus": 8141,
  "restrukturyzacji": 8142,
  "n\u0119\u0142a": 8143,
  "\u2581Department": 8144,
  "vir": 8145,
  "\u2581Title": 8146,
  "gram": 8147,
  "stop": 8148,
  "\u2581wdra\u017cania": 8149,
  "\u2581PA": 8150,
  "\u2581starts": 8151,
  "\u2581strza\u0142": 8152,
  "tyn": 8153,
  "\u2581czu\u0142": 8154,
  "\u2581schedule": 8155,
  "kcja": 8156,
  "\u2581Tur": 8157,
  "\u2581mas": 8158,
  "\u2581momentu": 8159,
  "\u2581By\u0142am": 8160,
  "\u2581jasno": 8161,
  "\u2581niezwykle": 8162,
  "\u2581strategic": 8163,
  "gin": 8164,
  "\u2581Head": 8165,
  "\u2581Leo": 8166,
  "\u2581Mer": 8167,
  "\u2581numery": 8168,
  "\u2581stable": 8169,
  "\u2581filtr": 8170,
  "\u2581sty": 8171,
  "/1": 8172,
  "\u2581jail": 8173,
  "\u2581folder": 8174,
  "metr": 8175,
  "\u2581cap": 8176,
  "\u2581minus": 8177,
  "byt": 8178,
  "\u2581gada": 8179,
  "vy": 8180,
  "\u2581Bay": 8181,
  "rzenia": 8182,
  "\u2581specjalnie": 8183,
  "\u2581dochodzenia": 8184,
  "\u2581blind": 8185,
  "\u2581statki": 8186,
  "\u2581gen": 8187,
  "\u2581zapyta\u0107": 8188,
  "\u2581zostawi\u0107": 8189,
  "poli": 8190,
  "\u2581wirus": 8191,
  "\u2581wysoki": 8192,
  "\u2581dyrektor": 8193,
  "\u2581SMEs": 8194,
  "\u2581tape": 8195,
  "\u2581sexual": 8196,
  "\u2581wspiera": 8197,
  "\u2581enemy": 8198,
  "UR": 8199,
  "\u2581manager": 8200,
  "\u2581rybo\u0142\u00f3wstwa": 8201,
  "\u2581Pop": 8202,
  "bia": 8203,
  "\u2581Camel": 8204,
  "\u2581gain": 8205,
  "\u2581negocjacji": 8206,
  "pic": 8207,
  "\u2581skuteczne": 8208,
  "\u25813.1": 8209,
  "\u2581staying": 8210,
  "\u2581zadzwoni\u0107": 8211,
  "\u2581Francja": 8212,
  "\u2581nast\u0119pnego": 8213,
  "\u2581misji": 8214,
  "\u2581CON": 8215,
  "\u258110%": 8216,
  "\u2581Prawie": 8217,
  "\u2581cream": 8218,
  "\u2581stworzenia": 8219,
  "\u2581developments": 8220,
  "\u2581\u017ar\u00f3d\u0142o": 8221,
  "OWA": 8222,
  "\u2581Software": 8223,
  "\u2581Wibrator": 8224,
  "\u2581compensation": 8225,
  "\u2581Serio": 8226,
  "\u2581op\u0142aty": 8227,
  "\u2581destroyed": 8228,
  "\u2581roof": 8229,
  "\u2581wielk\u0105": 8230,
  "cjon": 8231,
  "\u2581uzna\u0107": 8232,
  "\u2581\u017cyciem": 8233,
  "z\u0105": 8234,
  "-01": 8235,
  "\u2581sposobu": 8236,
  "\u2581Harrachov": 8237,
  "\u2581Pr": 8238,
  "\u2581mode": 8239,
  "\u2581regulaminu": 8240,
  "sys": 8241,
  "\u2581cal": 8242,
  "\u2581manufacture": 8243,
  "\u2581Communities": 8244,
  "\u2581blog": 8245,
  "bet": 8246,
  "\u2581obiad": 8247,
  "\u2581leg": 8248,
  "cin": 8249,
  "head": 8250,
  "\u2581electric": 8251,
  "mierz": 8252,
  "\u2581mi\u0119dzynarodowej": 8253,
  "\u2581pla\u017cy": 8254,
  "\u2581ci\u0105g": 8255,
  "\u2581discussion": 8256,
  "ification": 8257,
  "\u2581za\u0142atwi": 8258,
  "encja": 8259,
  "syp": 8260,
  "czer": 8261,
  "\u2581messages": 8262,
  "\u2581corner": 8263,
  "\u2581stakeholders": 8264,
  "\u2581Wsp\u00f3lne": 8265,
  "\u2581Daddy": 8266,
  "\u00d3": 8267,
  "\u2581konferencji": 8268,
  "\u2581dodatku": 8269,
  "\u2581ski": 8270,
  "tta": 8271,
  "ologiczne": 8272,
  "\u2581gdybym": 8273,
  "\u2581sk": 8274,
  "\u2581facility": 8275,
  "\u2581subjects": 8276,
  "\u2581nogi": 8277,
  "\u2581widzi": 8278,
  "\u2581reaction": 8279,
  "\u2581sheet": 8280,
  "ash": 8281,
  "\u2581respond": 8282,
  "\u2581pierwsz\u0105": 8283,
  "\u2581violence": 8284,
  "\u2581journey": 8285,
  "\u2581wy\u017csze": 8286,
  "\u2581pray": 8287,
  "\u2581sta\u0142a": 8288,
  "\u2581jedzenie": 8289,
  "\u2581w\u0142a\u015bciwym": 8290,
  "\u2581ludno\u015bci": 8291,
  "\u2581mon": 8292,
  "\u2581sleeping": 8293,
  "\u2581adults": 8294,
  "\u2581Type": 8295,
  "\u2581wiecie": 8296,
  "\u2581swimming": 8297,
  "\u2581internetowe": 8298,
  "\u2581Hell": 8299,
  "\u2581mn\u00f3stwo": 8300,
  "RM": 8301,
  "\u2581spe\u0142niaj\u0105": 8302,
  "\u2581Spotka": 8303,
  "\u2581sk\u0142adania": 8304,
  "\u2581s\u0105dzisz": 8305,
  "Show": 8306,
  "\u2581rozumie": 8307,
  "\u2581comparison": 8308,
  "\u2581Current": 8309,
  "\u2581dostawy": 8310,
  "\u2581podej\u015bcia": 8311,
  "\u2581Children": 8312,
  "\u2581upset": 8313,
  "\u2581conclusions": 8314,
  "\u2581forest": 8315,
  "sad": 8316,
  "\u2581wydarzenia": 8317,
  "\u2581desire": 8318,
  "\u2581minister": 8319,
  "fon": 8320,
  "\u2581dobrych": 8321,
  "\u2581EP": 8322,
  "\u2581winter": 8323,
  "ida": 8324,
  "wn": 8325,
  "\u2581rain": 8326,
  "\u2581spodziewa": 8327,
  "\u2581smoke": 8328,
  "\u2581w\u0142adzy": 8329,
  "\u2581producent": 8330,
  "nce": 8331,
  "\u2581wykonane": 8332,
  "All": 8333,
  "\u2581skarbie": 8334,
  "\u2581\u017cyczenie": 8335,
  "\u2581prywatne": 8336,
  "EA": 8337,
  "\u2581ekranem": 8338,
  "\u2581Monday": 8339,
  "\u2581seed": 8340,
  "\u2581schools": 8341,
  "\u2581cholery": 8342,
  "\u2581utrzyma\u0107": 8343,
  "\u2581opowiada": 8344,
  "\u0142o\u017cenie": 8345,
  "\u2581faceta": 8346,
  "zona": 8347,
  "pul": 8348,
  "ese": 8349,
  "\u2581immediate": 8350,
  "\u2581flying": 8351,
  "\u2581p\u0142askim": 8352,
  "rit": 8353,
  "\u2581Grupy": 8354,
  "rum": 8355,
  "\u25814-": 8356,
  "\u2581thousands": 8357,
  "\u2581Form": 8358,
  "unt": 8359,
  "\u2581Den": 8360,
  "\u2581Tor": 8361,
  "\u2581\u015bniadanie": 8362,
  "\u2581znaczne": 8363,
  "\u2581contributions": 8364,
  "\u2581jump": 8365,
  "\u2581beer": 8366,
  "\u2581illegal": 8367,
  "\u2581Uwa\u017cam": 8368,
  "niczy": 8369,
  "\u2581Young": 8370,
  "pal": 8371,
  "awa": 8372,
  "\u2581pragnie": 8373,
  "\u2581Amsterdam": 8374,
  "\u2581rural": 8375,
  "\u2581fourth": 8376,
  "lus": 8377,
  "iki": 8378,
  "\u2581przyzna\u0107": 8379,
  "\u2581przyjaci\u00f3\u0142mi": 8380,
  "\u2581Poker": 8381,
  "\u2581bazy": 8382,
  "\u2581Znasz": 8383,
  "onu": 8384,
  "\u2581si\u00ea": 8385,
  "\u2581stars": 8386,
  "\u2581arrival": 8387,
  "\u2581department": 8388,
  "\u2581\u017cart": 8389,
  "\u2581klinicznych": 8390,
  "pil": 8391,
  "\u2581Key": 8392,
  "\u2581Hill": 8393,
  "\u2581etapie": 8394,
  "\u2581tight": 8395,
  "\u2581Operator": 8396,
  "\u2581rz\u0105du": 8397,
  "\u2581rid": 8398,
  "sek": 8399,
  "\u2581explained": 8400,
  "gal": 8401,
  "wane": 8402,
  "\u2581Praca": 8403,
  "\u2581muzyki": 8404,
  "\u2581wondering": 8405,
  "\u2581Chcia\u0142abym": 8406,
  "\u2581dokumentu": 8407,
  "\u2581ocenie": 8408,
  "\u2581elektrycznej": 8409,
  "\u2581forgive": 8410,
  "\u2581u\u0142atwia": 8411,
  "\u2581Bobby": 8412,
  "\u2581pracowa\u0142": 8413,
  "\u2581sens": 8414,
  "\u2581Pal": 8415,
  "\u2581Przynajmniej": 8416,
  "\u2581hearts": 8417,
  "\u2581Studio": 8418,
  "\u2581hall": 8419,
  "\u2581dumping": 8420,
  "get": 8421,
  "\u2581shoes": 8422,
  "DLL": 8423,
  "\u2581dotycz\u0105c\u0105": 8424,
  "\u0142up": 8425,
  "\u2581IS": 8426,
  "\u2581plastic": 8427,
  "\u2581Skip": 8428,
  "\u2581wymagaj\u0105": 8429,
  "\u2581zwi\u0119kszy\u0107": 8430,
  "\u2581wygl\u0105dasz": 8431,
  "hal": 8432,
  "wy\u017c": 8433,
  "\u2581Jigsaw": 8434,
  "\u2581g\u00f3rze": 8435,
  "\u2581kamer": 8436,
  "\u2581Breakfast": 8437,
  "\u2581admit": 8438,
  "\u2581sta\u0142e": 8439,
  "\u2581Logowanie": 8440,
  "/04": 8441,
  "\u2581competitiveness": 8442,
  "\u2581wiz": 8443,
  "szcz\u0119": 8444,
  "\u2581Bet": 8445,
  "\u2581Honey": 8446,
  "\u2581ustali\u0107": 8447,
  "\u2581identity": 8448,
  "\u2581przedstawi\u0107": 8449,
  "\u2581stress": 8450,
  "-20": 8451,
  "\u2581Taka": 8452,
  "\u2581suit": 8453,
  "\u2581diseases": 8454,
  "\u2581komunikacji": 8455,
  "\u2581wspania\u0142e": 8456,
  "\u2581dotycz\u0105ca": 8457,
  "VA": 8458,
  "\u2581woli": 8459,
  "iczn\u0105": 8460,
  "\u2581comfort": 8461,
  "\u2581Cro": 8462,
  "\u2581mor": 8463,
  "\u2581wydania": 8464,
  "\u2581obecno\u015bci": 8465,
  "\u2581pobierania": 8466,
  "\u2581accounting": 8467,
  "\u2581conversation": 8468,
  "pir": 8469,
  "wanie": 8470,
  "\u2581Pa\u0144stwach": 8471,
  "\u25814.1": 8472,
  "\u2581\u017cy\u0142": 8473,
  "tni": 8474,
  "\u2581Sprawiedliwo\u015bci": 8475,
  "\u2581expert": 8476,
  "\u2581effectiveness": 8477,
  "\u2581publikacji": 8478,
  "\u2581firm\u0119": 8479,
  "\u2581carefully": 8480,
  "\u2581chief": 8481,
  "\u2581tariff": 8482,
  "\u2581technicznej": 8483,
  "\u2581szybciej": 8484,
  "\u2581sposobem": 8485,
  "pin": 8486,
  "\u2581closely": 8487,
  "\u2581Pension": 8488,
  "\u2581imposed": 8489,
  "\u017ani": 8490,
  "OT": 8491,
  "\u2581Chief": 8492,
  "\u2581mog\u0142o": 8493,
  "\u2581spo\u0142eczne": 8494,
  "\u2581bud": 8495,
  "\u2581rapporteur": 8496,
  "rium": 8497,
  "\u2581adult": 8498,
  "\u2581Fin": 8499,
  "ender": 8500,
  "\u25813)": 8501,
  "\u2581funkcje": 8502,
  "\u2581amendment": 8503,
  "ille": 8504,
  "\u2581threat": 8505,
  "\u2581jaka\u015b": 8506,
  "\u2581Premium": 8507,
  "\u2581Conference": 8508,
  "\u2581universe": 8509,
  "\u2581pr\u00f3b": 8510,
  "\u2581\u0142atwe": 8511,
  "\u2581organised": 8512,
  "\u2581miast": 8513,
  "af": 8514,
  "\u2581systemem": 8515,
  "dale": 8516,
  "\u2581r\u0119czniki": 8517,
  "RP": 8518,
  "\u2581miejscach": 8519,
  "\u2581otrzyma\u0142": 8520,
  "\u2581indziej": 8521,
  "\u2581lotniczego": 8522,
  "\u2581fixing": 8523,
  "\u2581ogranicze\u0144": 8524,
  "\u2581define": 8525,
  "\u2581zapewni": 8526,
  "\u2581pr\u0119dko\u015bci": 8527,
  "\u2581wolny": 8528,
  "st\u00f3w": 8529,
  "\u2581kwestia": 8530,
  "TU": 8531,
  "\u25811234/2007": 8532,
  "\u2581spring": 8533,
  "\u2581Mog": 8534,
  "\u2581Ocena": 8535,
  "\u2581Termin": 8536,
  "\u2581shopping": 8537,
  "dla": 8538,
  "\u2581Przepisy": 8539,
  "\u2581post\u0119powanie": 8540,
  "pit": 8541,
  "\u2581p\u00f3jd\u0119": 8542,
  "\u2581niezb\u0119dnych": 8543,
  "\u2581Sil": 8544,
  "\u2581sypialni": 8545,
  "\u2581temperatury": 8546,
  "\u2581przywozie": 8547,
  "\u25811991": 8548,
  "\u2581stuck": 8549,
  "bat": 8550,
  "\u2581Gal": 8551,
  "sji": 8552,
  "\u2581kolory": 8553,
  "\u2581Rob": 8554,
  "\u2581Newsletter": 8555,
  "\u2581Grace": 8556,
  "\u2581dedicated": 8557,
  "pak": 8558,
  "\u2581Want": 8559,
  "oc": 8560,
  "orient": 8561,
  "\u2581Royal": 8562,
  "\u2581wys\u0142a\u0142": 8563,
  "\u2581Denmark": 8564,
  "\u2581Europejskich": 8565,
  "\u0142\u00f3\u017c": 8566,
  "\u2581lekarz": 8567,
  "\u2581Billy": 8568,
  "\u2581FI": 8569,
  "ical": 8570,
  "\u2581modified": 8571,
  "\u2581Ojciec": 8572,
  "\u2581RA": 8573,
  "\u2581brings": 8574,
  "\u25812.2": 8575,
  "\u2581aimed": 8576,
  "\u2581obywatelskiego": 8577,
  "\u2581pocz\u0105tek": 8578,
  "\u2581kupi": 8579,
  "wers": 8580,
  "\u2581okre\u015blenia": 8581,
  "aj\u0105ce": 8582,
  "\u2581Alan": 8583,
  "\u2581kryzysu": 8584,
  "\u2581licences": 8585,
  "-8": 8586,
  "iej": 8587,
  "\u2581Niekt\u00f3rzy": 8588,
  "\u2581bezpieczny": 8589,
  "\u2581deleted": 8590,
  "like": 8591,
  "\u2581Mnie": 8592,
  "prowadza": 8593,
  "cyjne": 8594,
  "\u2581Mieszka": 8595,
  "\u2581processed": 8596,
  "\u2581Turn": 8597,
  "\u2581Blog": 8598,
  "\u2581powinnam": 8599,
  "\u2581designated": 8600,
  "\u2581Step": 8601,
  "\u2581by\u0142a\u015b": 8602,
  "\u2581uwag": 8603,
  "\u2581Jedno": 8604,
  "5)": 8605,
  "\u2581Cross": 8606,
  "\u2581lepszy": 8607,
  "\u2581RO": 8608,
  "\u2581loan": 8609,
  "\u2581utrzymania": 8610,
  "\u2581ostatnim": 8611,
  "\u2581zastosowaniu": 8612,
  "s\u0142uch": 8613,
  "\u2581zmniejszenia": 8614,
  "\u2581lift": 8615,
  "\u2581spowodowane": 8616,
  "\u2581displayed": 8617,
  "\u2581kwestie": 8618,
  "\u2581sze\u015bciu": 8619,
  "ath": 8620,
  "\u2581Opr\u00f3cz": 8621,
  "\u2581Page": 8622,
  "Li": 8623,
  "kowego": 8624,
  "\u2581spo\u015br\u00f3d": 8625,
  "\u2581Video": 8626,
  "\u2581Ministry": 8627,
  "\u2581organizacje": 8628,
  "\u2581OD": 8629,
  "\u2581kol": 8630,
  "\u2581Edition": 8631,
  "\u2581zobaczy": 8632,
  "hl": 8633,
  "\u2581kingdom": 8634,
  "\u2581%)": 8635,
  "\u2581Share": 8636,
  "\u2581stronach": 8637,
  "\u2581magazyn": 8638,
  "\u2581Racja": 8639,
  "\u2581improvement": 8640,
  "\u2581kot": 8641,
  "\u2581possibly": 8642,
  "\u2581prosty": 8643,
  "\u25811.5": 8644,
  "\u2581thy": 8645,
  "trzy": 8646,
  "via": 8647,
  "\u2581Bad": 8648,
  "\u2581thou": 8649,
  "\u2581(4": 8650,
  "\u2581rozkaz": 8651,
  "\u2581rodzinie": 8652,
  "\u2581pages": 8653,
  "\u2581odpowiednim": 8654,
  "\u2581Channels": 8655,
  "\u2581confidence": 8656,
  "\u2581pozycj\u0119": 8657,
  "\u2581objaw\u00f3w": 8658,
  "\u2581Pomy\u015bl": 8659,
  "\u2581manufacturing": 8660,
  "\u2581specifically": 8661,
  "\u2581AG": 8662,
  "\u2581served": 8663,
  "\u2581Warunki": 8664,
  "SH": 8665,
  "\u2581appearance": 8666,
  "\u2581remind": 8667,
  "NG": 8668,
  "\u2581g\u0142\u00f3wne": 8669,
  "\u2581Hor": 8670,
  "CT": 8671,
  "\u2581stworzenie": 8672,
  "\u2581Dave": 8673,
  "\u2581kompetencji": 8674,
  "\u2581renal": 8675,
  "\u2581Registry": 8676,
  "\u2581becoming": 8677,
  "\u2581Andy": 8678,
  "\u2581zg\u0142asza": 8679,
  "\u2581automatycznie": 8680,
  "\u2581allocation": 8681,
  "\u2581Bed": 8682,
  "\u2581reducing": 8683,
  "rn": 8684,
  "\u2581Ann": 8685,
  "\u2581collected": 8686,
  "\u2581filled": 8687,
  "\u2581yellow": 8688,
  "\u2581podlegaj\u0105": 8689,
  "\u2581u\u017cywane": 8690,
  "\u2581post\u0119p": 8691,
  "wka": 8692,
  "\u2581hole": 8693,
  "szym": 8694,
  "\u2581szczeg\u00f3\u0142y": 8695,
  "\u2581opublikowaniu": 8696,
  "LO": 8697,
  "\u2581Powiniene\u015b": 8698,
  "\u2581Pensjonat": 8699,
  "\u2581pol": 8700,
  "Al": 8701,
  "\u2581dost\u0119pno\u015bci": 8702,
  "\u2581czas\u00f3w": 8703,
  "\u2581administrator": 8704,
  "nienia": 8705,
  "\u2581Wa\u017cne": 8706,
  "\u2581budowy": 8707,
  "European": 8708,
  "\u2581arrived": 8709,
  "\u2581restauracji": 8710,
  "\u2581Bell": 8711,
  "\u2581szt": 8712,
  "\u2581et": 8713,
  "\u2581Flat": 8714,
  "\u2581hungry": 8715,
  "\u2581codziennie": 8716,
  "\u2581prop": 8717,
  "grad": 8718,
  "anu": 8719,
  "\u2581golf": 8720,
  "\u2581male": 8721,
  "\u2581magic": 8722,
  "\u2581wod\u0119": 8723,
  "\u2581podobnych": 8724,
  "\u2581got\u00f3w": 8725,
  "\u2581determining": 8726,
  "\u2581herself": 8727,
  "\u2581telephone": 8728,
[...]
